[PAD]
[UNK]
[CLS]
[SEP]
[MASK]
<actor>
<alarmtype>
<album>
<appname>
<apptype>
<artist>
<band>
<bylocation>
<calculatecontent>
<cameralens>
<cameramode>
<customlocation>
<datetype>
<devicename>
<director>
<drivemode>
<dstlocation>
<fmfrequency>
<fmname>
<genericall>
<genericcontent>
<genericcountry>
<genericdate>
<genericduration>
<genericintnum>
<generickeyword>
<genericlocation>
<genericmax>
<genericmin>
<genericordinalnum>
<genericperson>
<generictime>
<jokekeyword>
<joketype>
<language>
<locationtype>
<mediatype>
<musicmode>
<musicname>
<navsearchkeyword>
<navitype>
<newskeyword>
<noteskeyword>
<notesshowtype>
<phonenum>
<playlist>
<srclocation>
<style>
<videoname>
<vskitkeyword>
<musicstyle>
<videostyle>
<artistband>
<albummusicname>
<newstype>
<genericconfuseentity>
<albumplaylist>
<vehicletype>
<generictimeline>
<genericword>
<recordtype>
<musicsource>
<sporttype>
<genericdistance>
!
"
#
$
%
&
'
(
)
*
+
,
-
.
/
0
1
2
3
4
5
6
7
8
9
:
;
<
=
>
?
@
[
\
]
^
_
`
a
b
c
d
e
f
g
h
i
j
k
l
m
n
o
p
q
r
s
t
u
v
w
x
y
z
{
|
}
~
¡
£
¥
§
¨
©
ª
«
¬
®
¯
°
±
²
³
´
µ
·
¹
º
»
¼
½
¾
¿
×
ß
æ
ð
÷
ø
þ
đ
ħ
ı
ł
ŋ
œ
ſ
ƒ
ȝ
ɐ
ɑ
ɓ
ɔ
ɕ
ə
ɛ
ɡ
ɣ
ɨ
ɪ
ɲ
ɾ
ʁ
ʂ
ʃ
ʊ
ʒ
ʔ
ʰ
ʲ
ʷ
ʹ
ʻ
ʼ
ʽ
ʾ
ʿ
ˁ
ˈ
ː
α
β
γ
δ
ε
ζ
η
θ
ι
κ
λ
μ
ν
ξ
ο
π
ρ
ς
σ
τ
υ
φ
χ
ψ
ω
а
б
в
г
д
е
ж
з
и
к
л
м
н
о
п
р
с
т
у
ф
х
ц
ч
ш
щ
ъ
ы
ь
э
ю
я
є
і
ј
љ
њ
ћ
ѣ
ү
ա
գ
ե
թ
ի
լ
կ
հ
մ
յ
ն
ո
ս
վ
տ
ր
ւ
א
ב
ג
ד
ה
ו
ז
ח
ט
י
ך
כ
ל
ם
מ
ן
נ
ס
ע
פ
צ
ק
ר
ש
ת
،
ء
ا
ب
ة
ت
ث
ج
ح
خ
د
ذ
ر
ز
س
ش
ص
ض
ط
ظ
ع
غ
ـ
ف
ق
ك
ل
م
ن
ه
و
ى
ي
پ
چ
ک
گ
ہ
ی
ܐ
ܝ
अ
क
ग
च
ज
ड
ण
त
द
ध
न
प
ब
भ
म
य
र
ल
व
श
ष
स
ह
ा
ि
ी
ो
ক
গ
জ
ত
দ
ন
প
ব
ম
য
র
ল
স
া
ি
ী
ে
க
த
ம
ர
ா
ி
ு
ก
ข
ค
ง
จ
ช
ญ
ณ
ด
ต
ท
ธ
น
บ
ป
ผ
พ
ฟ
ภ
ม
ย
ร
ล
ว
ศ
ษ
ส
ห
อ
ะ
า
ำ
เ
แ
โ
ใ
ไ
າ
་
ག
ར
ས
ာ
း
ა
ბ
გ
დ
ე
ვ
თ
ი
კ
ლ
მ
ნ
ო
რ
ს
ტ
უ
ქ
შ
ხ
ᄀ
ᄁ
ᄂ
ᄃ
ᄄ
ᄅ
ᄆ
ᄇ
ᄉ
ᄊ
ᄋ
ᄌ
ᄎ
ᄏ
ᄐ
ᄑ
ᄒ
ᅡ
ᅢ
ᅣ
ᅥ
ᅦ
ᅧ
ᅨ
ᅩ
ᅪ
ᅬ
ᅭ
ᅮ
ᅯ
ᅱ
ᅲ
ᅳ
ᅴ
ᅵ
ᆨ
ᆫ
ᆯ
ᆷ
ᆸ
ᆺ
ᆻ
ᆼ
ក
ង
ត
ន
ប
ម
រ
ស
ា
ᵉ
‐
‑
‒
–
—
―
‘
’
‚
“
”
„
†
‡
•
…
‰
′
″
›
⁄
⁰
₂
€
ℂ
ℓ
ℕ
№
ℚ
ℝ
™
ℤ
←
↑
→
↔
↦
⇒
⇔
∀
∅
∈
−
∘
∙
√
∞
∧
∨
∩
∪
∫
≈
≡
≤
≥
⊂
⊕
⋅
─
━
│
└
├
║
■
►
◄
●
★
☆
♀
♂
♕
♙
♥
♦
♭
♯
♰
⚡
✝
⟨
⟩
⟶
ⴰ
ⴱ
ⴷ
ⴻ
ⵉ
ⵍ
ⵎ
ⵏ
ⵓ
ⵔ
ⵙ
ⵜ
ⵢ
ⵣ
、
。
《
》
「
」
『
』
〜
あ
い
う
え
お
か
き
く
け
こ
さ
し
す
せ
そ
た
ち
っ
つ
て
と
な
に
の
は
ひ
ふ
へ
ほ
ま
み
め
も
ゃ
や
ゆ
よ
ら
り
る
れ
ろ
わ
を
ん
ァ
ア
ィ
イ
ウ
ェ
エ
オ
カ
キ
ク
ケ
コ
サ
シ
ス
セ
ソ
タ
チ
ッ
ツ
テ
ト
ナ
ニ
ネ
ノ
ハ
ヒ
フ
ヘ
ホ
マ
ミ
ム
メ
モ
ャ
ヤ
ュ
ョ
ラ
リ
ル
レ
ロ
ワ
ン
・
ー
一
丁
七
三
上
下
不
世
东
中
主
久
之
九
事
二
五
井
京
人
仁
代
伊
会
伝
佐
作
你
保
信
傳
元
先
光
全
八
公
六
典
内
出
分
利
前
劉
動
化
北
区
區
十
千
华
南
博
原
县
友
口
古
台
史
号
司
合
吉
同
名
后
君
周
命
和
唐
嘉
四
回
国
國
園
土
在
地
型
城
堂
場
士
夏
外
多
夜
夢
大
天
太
夫
奇
女
好
子
字
学
學
宁
宇
守
安
宗
定
宮
家
宿
寺
小
少
屋
山
峰
島
川
州
工
市
帝
師
平
年
康
建
式
张
張
後
德
心
志
忠
思
恋
情
想
愛
成
我
戦
所
手
政
教
文
新
方
族
日
昌
明
星
春
昭
是
時
景
曲
書
最
會
月
有
朝
木
本
朱
李
村
来
東
松
林
校
楊
業
樂
橋
次
歌
正
武
氏
民
水
永
江
沙
河
治
泉
法
波
洋
洞
津
洲
流
海
清
港
湖
源
漢
火
無
版
物
特
玉
王
理
生
田
男
町
画
界
白
百
的
皇
目
真
知
石
研
社
神
福
秀
秋
科
究
空
立
章
竹
第
紀
經
線
編
羅
美
義
老
者
聖
育
胡
自
興
舞
良
色
花
英
草
華
葉
藏
藤
虎
行
術
街
衛
西
見
親
言
記
語
論
语
谷
赤
越
路
車
軍
通
道
郎
郡
部
都
里
重
野
金
镇
長
长
門
間
阳
阿
院
陳
陵
陽
隆
雄
集
雨
雪
雲
青
面
音
頭
風
飛
館
香
馬
马
高
鬼
魔
麻
黃
黄
龍
龙
ﬁ
！
（
）
，
－
：
～
##t
##a
##l
##e
##u
##s
##h
##i
##r
##o
##d
##g
##k
##m
##n
##w
##b
##p
##z
##v
##c
##ł
##f
##y
##x
##j
##3
##0
##τ
##χ
##и
##н
##ч
##е
##к
##о
##œ
##q
##7
##2
##5
##ı
##し
##に
##ほ
##ん
##8
##6
##4
##1
##ß
##ο
##υ
##λ
##α
##κ
##ι
##в
##а
##с
##ש
##ו
##פ
##ט
##»
##д
##р
##м
##т
##ы
##か
##у
##9
##п
##ш
##ј
##я
##х
##ᅡ
##ᄅ
##ᆷ
##ᄋ
##ᅴ
##ø
##ц
##ς
##ν
##μ
##η
##є
##ε
##ل
##ا
##ه
##و
##ن
##ɛ
##_
##マ
##ク
##タ
##レ
##ナ
##ρ
##σ
##π
##)
##*
##ត
##ា
##خ
##ر
##ン
##ホ
##な
##า
##ย
##อ
##ไ
##ส
##م
##ع
##מ
##ל
##æ
##ъ
##δ
##រ
##ង
##ᅮ
##ᆯ
##ж
##ふ
##れ
##る
##ʼ
##ي
##ة
##ф
##ᅵ
##ᅢ
##ᄀ
##ᅪ
##ᄒ
##ᆨ
##ᄌ
##ᅥ
##י
##г
##л
##ნ
##გ
##ე
##ლ
##ო
##ი
##]
##"
##-
##(
##…
##,
##б
##ь
##:
##%
##ˈ
##ə
##ᅳ
##ᆼ
##ᄉ
##ル
##ト
##ロ
##ー
##の
##э
##ន
##ម
##ก
##ด
##ю
##щ
##ح
##ᄃ
##ᅯ
##ᆫ
##}
##ᅩ
##ᆸ
##ハ
##シ
##ヒ
##$
##☆
##=
##·
##.
##ר
##ח
##א
##і
##ム
##ラ
##コ
##ك
##س
##া
##ɨ
##ʂ
##ش
##ت
##ى
##з
##ช
##แ
##ล
##ว
##ক
##স
##ω
##ص
##ف
##נ
##न
##क
##β
##ی
##ʾ
##γ
##ա
##թ
##ո
##լ
##ի
##կ
##ज
##म
##च
##ग
##व
##य
##─
##θ
##カ
##ز
##ب
##ो
##प
##ी
##ⴻ
##ⵓ
##ⴰ
##ⵔ
##ⵏ
##ন
##য
##প
##র
##ী
##ן
##ء
##þ
##ʊ
##ː
##ק
##ם
##ð
##ल
##ि
##त
##ा
##ป
##น
##ɔ
##ა
##რ
##თ
##ვ
##ɪ
##ق
##ذ
##チ
##ョ
##キ
##ス
##ッ
##њ
##ћ
##ⴷ
##ⵍ
##フ
##ア
##ᄂ
##ᅨ
##ᄇ
##ᅦ
##ᆻ
##ᄎ
##კ
##შ
##ط
##ہ
##よ
##も
##ས
##ס
##ŋ
##'
##<
##{
##?
##”
##ா
##ն
##ս
##ե
##ր
##ম
##ァ
##イ
##ז
##ה
##ᅭ
##え
##ड
##^
##@
##–
##|
##र
##テ
##ج
##ʹ
##უ
##მ
##پ
##ケ
##ェ
##ד
##ע
##ב
##ง
##ხ
##დ
##đ
##ψ
##り
##て
##ল
##ি
##چ
##บ
##ห
##;
##×
##ᅬ
##&
##գ
##は
##さ
##ツ
##き
##め
##ʷ
##ᅧ
##ᄆ
##っ
##と
##あ
##た
##を
##մ
##ʰ
##ү
##ħ
##ת
##ɣ
##د
##•
##း
##お
##[
###
##ব
##গ
##জ
##ʿ
##ظ
##ζ
##ら
##い
##う
##ᆺ
##ำ
##ค
##º
##ک
##へ
##ャ
##ɾ
##そ
##†
##/
##+
##ศ
##°
##ᅲ
##ᄑ
##す
##љ
##み
##—
##∪
##ւ
##ม
##เ
##ে
##リ
##φ
##ウ
##ʔ
##ʁ
##ร
##ต
##ษ
##¿
##ⵙ
##モ
##ξ
##ニ
##ュ
##ใ
##ญ
##ত
##พ
##ſ
##स
##ி
##ு
##த
##ʻ
##−
##ⵉ
##ภ
##ស
##ܝ
##ɑ
##エ
##ᅱ
##ह
##द
##ィ
##こ
##″
##≤
##ᄁ
##€
##غ
##ท
##จ
##♦
##ⵎ
##>
##ქ
##ს
##โ
##յ
##כ
##ᄐ
##ま
##く
##║
##ȝ
##∞
##ɕ
##ʒ
##―
##ბ
##ℓ
##ध
##ⴱ
##け
##¨
##サ
##ာ
##ʃ
##տ
##!
##’
##ɓ
##າ
##ソ
##ธ
##ⵣ
##せ
##„
##ひ
##ワ
##µ
##ณ
##ტ
##オ
##わ
##भ
##~
##ﬁ
##ᄏ
##ர
##க
##ผ
##¡
##ข
##“
##ち
##צ
##ប
##ะ
##ג
##ᵉ
##や
##ब
##ـ
##ך
##ɡ
##\
##´
##ª
##⊕
##ث
##∫
##ヤ
##ɐ
##ܐ
##ض
##ノ
##দ
##ミ
##↑
##ᅣ
##¹
##ʲ
##セ
##`
##つ
##━
##श
##メ
##ⵢ
##ष
##ⵜ
##ក
##⟨
##ག
##ネ
##ण
##ˁ
##ᄄ
##½
##」
##、
##〜
##վ
##ѣ
##→
##ろ
##ƒ
##ʽ
##∅
##ヘ
##ᄊ
##¼
##ゃ
##گ
##・
##←
##∀
##↦
##⋅
##«
##‘
##‚
##²
##』
##ℤ
##¬
##ゆ
##：
##ɲ
##§
##►
##ம
##）
##（
##《
##「
##ฟ
##～
##ར
##³
##↔
##≈
##！
##հ
##±
##ℂ
##¯
##∙
##》
##●
##。
##£
##⟩
##♭
##÷
##›
##│
##∨
##་
##©
##अ
##♂
##♯
##′
##『
##№
##∩
##∧
##⇒
##√
##ℝ
##，
##♙
##‡
##⁰
##⊂
##¾
##‰
##♥
##✝
##‐
##∘
##‑
##ℚ
##★
##™
##≥
##®
##≡
##♕
##♀
##♰
##∈
##⇔
##■
##⚡
##،
##‒
##ℕ
##◄
##⁄
##└
##¥
##－
##₂
##⟶
##├
##es
de
##on
##er
##en
##an
##ti
##ur
##is
##te
##re
##le
##ar
la
##in
et
le
en
##ent
##ue
##ne
##or
##it
##ie
##ou
##om
##al
##tion
##st
##il
des
re
au
du
##ce
##our
les
par
##ra
##me
##se
##ant
un
##ment
##que
est
##ve
##ch
##res
##at
##ro
##ri
##ans
##ol
##us
##ui
19
##de
##ation
##au
con
##as
ch
com
il
in
##ais
##ic
une
##el
##si
dans
##ai
##ge
##ier
20
se
an
##oi
##pe
##et
##am
##ran
##ien
##ain
##ter
pour
##qu
son
##ot
pl
##ale
sur
##tre
##lle
##ite
pro
##ait
##ces
##ul
ar
##ique
##mp
##ig
##les
qui
que
ou
##ag
##ille
##ac
qu
##di
ex
##os
##ux
me
##ab
##ine
##og
##ion
##ff
##ci
al
##ut
##ver
##ise
di
##ist
##un
##ure
fran
ne
ave
pre
##ph
avec
##ort
mar
##ques
##urs
##aire
ap
per
201
plus
##end
##ir
##ap
##che
200
##and
ce
ac
##oc
##ont
##age
comm
sa
su
##mb
##ill
pe
##he
av
##ois
##ance
##ction
##ere
on
te
##op
cl
##nes
##ous
##ad
),
##ub
elle
##ate
parti
18
pas
pr
sont
##ay
comp
##id
##rou
##ard
##um
||
##ati
st
je
##im
mon
##ors
pres
##aux
res
##ct
##uis
dep
mo
franc
ser
tra
nom
am
aux
ref
##oir
es
##mier
199
##con
car
##sion
ete
premier
##iste
##tes
or
##ord
cet
deux
).
##eren
rep
##li
##oire
jo
##ace
not
inter
aut
the
##ib
##tique
for
##ers
entre
##ert
mais
##du
##vi
ro
##ing
##raph
comme
##teur
##ene
##onne
ses
##ations
po
##iens
reg
fil
tou
##mes
as
ec
cette
referen
sc
##ru
##tin
app
at
##ograph
gran
fin
francais
##rit
##ouve
fe
eg
col
##amp
anne
##aine
##av
gen
##ond
references
ter
dec
co
ma
##int
198
##ence
##une
##all
##bre
dis
ep
hist
##ang
gu
##alement
##per
ad
ph
##ours
##ins
pol
##ants
##tit
##son
aus
apres
##ats
##iv
##use
ont
##elle
##ites
ab
cou
##ments
fait
##ore
##ubl
sain
aussi
##aiss
##man
rec
ob
##ente
##aires
so
nouve
##tif
197
che
##iques
##ons
tro
##ante
##des
ele
##ographie
##igne
##ten
france
el
cons
exter
##ales
imp
sou
notes
##io
sous
##lo
##olog
##ia
##tions
##min
saint
##iere
##if
arti
tr
##aissance
##able
lors
ces
##ta
##tra
##eric
##ts
##qui
film
##ens
##orte
sy
min
##are
tour
met
##cip
##ign
cre
ag
si
##be
196
liens
##asse
meme
##ies
17
##uite
exp
##ven
##ron
##ich
prin
##mbre
##ole
##rie
##ip
paris
cent
lui
champ
##ide
##rig
##ong
puis
##agne
##ures
ans
be
man
externes
ass
joue
ju
commun
naissance
##til
gener
publ
etre
ren
leur
##iver
##ienne
##vent
trois
pri
##00
##der
can
char
cel
americ
##aient
##ves
dont
etait
sit
##th
commune
##ose
##ade
der
cour
grand
##ass
jus
nation
no
##cu
cor
##ris
##est
lie
##ult
dem
##aison
mat
ge
grou
##alite
##od
##va
pay
ver
sp
equi
depuis
mus
jean
195
ain
##endant
##ouver
ev
ville
##met
hom
eur
##cle
ins
##ire
##dre
##ution
diff
autres
##ues
##erie
inf
premiere
alors
ainsi
##ak
poli
##ric
rom
champion
ang
egalement
##iss
##ble
th
fut
##oy
194
peu
##jet
pays
##alis
##one
bl
##ages
deb
acc
##ope
prop
tit
mil
ils
guer
temp
dire
##tement
off
histoire
##vis
nombre
contre
##ieme
is
rou
person
##ges
##orm
gra
def
bar
##tiques
##la
produ
esp
of
trans
##oit
trou
don
const
anc
##atre
##agn
##isse
##alle
conf
he
##iers
sie
alb
univer
emp
alle
##ieurs
fer
aff
##ches
conc
partie
##az
16
nord
##lement
193
##out
##anc
##ains
##cul
groupe
bi
jour
cap
sud
region
##ste
orig
##its
sol
rel
mal
vi
annees
##iel
oc
##osi
fam
mont
fon
eff
situe
dern
##pes
##vel
##ateur
util
avant
##enne
princip
rap
##uel
##gan
##rib
af
ret
##vre
dev
##orti
mort
tres
vers
em
##cher
15
##ents
deces
»,
europe
voir
prof
etu
##ret
##ande
peut
pos
fl
plusieurs
guerre
##ann
##art
monde
##mee
presid
sel
##enti
##da
##ow
##xe
lib
vie
ba
disp
conse
##ane
histor
##xes
sh
jusqu
port
##ry
##ctions
it
spe
##pp
tout
##ug
enf
##ocie
enc
sui
##ly
sep
##site
serie
bat
##ute
tele
##ma
##ission
##illes
pop
##mble
##ke
##ov
##ob
pat
env
##ton
edi
##ser
cro
remp
ed
##tiv
ra
##ze
##iti
##cles
192
sec
##cl
equipe
vill
##ile
leg
hau
vol
liste
ber
conn
##ines
##isee
long
()
dom
etat
ve
organ
ni
##ule
saison
bel
im
lou
ca
##ption
vic
joueur
place
##ari
her
pier
ann
secon
dro
##vient
191
##ler
loc
##nation
dou
##riere
club
selon
ital
sans
##ses
pou
rev
site
fr
bien
10
titre
cert
roy
ci
popul
sorti
##aines
politique
12
allem
etats
avait
##tel
##ster
##ication
fois
##amment
personn
general
##je
##esse
famille
mer
cat
##vision
internation
##ner
colle
annee
cas
socie
trava
conne
prov
avoir
quel
##lu
ense
##ger
##isme
classe
##ologie
temps
##ense
gouver
francaise
permet
bas
inst
form
##aul
##mar
and
den
hab
cont
prix
fo
album
##port
dist
202
##teurs
act
non
repres
americain
pierre
##endre
bib
nouvelle
##isation
offic
cal
nat
##mi
autre
14
bou
##istre
##land
##lin
##antes
##ame
grande
gar
egl
##nement
».
fem
##ome
œu
part
##voir
articles
championn
scien
super
mi
debut
point
##oph
br
notamment
##velop
depar
phil
##nel
##hn
##ram
exe
dur
##ud
pendant
gre
##arti
##cri
13
##ok
",
vis
cours
president
ty
donne
##istes
ligne
fond
develop
tous
meille
unis
11
##oque
2010
pal
bibli
import
##ber
jac
##uelle
arch
##ourg
pie
##vers
nouveau
faire
mes
##tive
constru
centre
men
##cial
##cteur
##uses
##enn
##ions
sal
##chn
##eres
leurs
##rise
espe
national
##ode
eglise
cin
suc
lieu
##uc
universite
departement
##ieur
forme
##dic
##ae
envir
fac
##itaire
##rique
fre
mun
liv
suiv
ouest
##tte
voi
##rice
##ell
encore
quatre
##tis
##ice
##ian
##co
epis
lit
foot
dernier
suite
##omp
dess
moy
cha
biographie
lang
mich
jeu
|-
connexes
cult
rus
##ateau
real
moins
##ki
habit
##aise
footb
lo
village
societe
new
##entes
mill
ay
##osition
public
homme
##oci
val
soit
##mo
cree
ancien
##ah
2011
base
##bert
##uit
partir
chan
##val
190
##die
cy
vict
##acter
##ral
##ps
techn
realis
ech
##ables
appar
sour
##ras
chef
cri
del
fils
##elles
doc
##aille
sch
2009
camp
music
ii
2008
##tee
mondi
muse
##ration
##tie
##lace
ven
##ast
territ
celui
2012
louis
##rer
constit
toute
developpe
##omb
lig
##conom
2014
##oles
ess
mor
match
syste
##ature
quelques
##ieu
##ony
siecle
donc
##tt
ur
devient
##oires
gouvernement
2000
prog
beau
##ix
##tant
econom
porte
bo
hui
##mple
lar
occu
hy
comte
pere
##ach
##teg
journ
2015
##olution
marie
art
##dent
admin
##onn
jam
##atique
cote
servi
##jo
##aume
##once
2007
brit
##quel
2018
particul
2013
jap
canad
origin
##ises
musique
celle
geor
comb
##dition
jeux
nationale
caracter
arg
##ouse
ly
recon
2006
##rier
entrep
har
mag
provin
pra
administ
mai
##ka
but
189
##ja
trouve
differ
pers
petit
john
championnat
republ
carriere
gal
ayant
plan
cir
roi
##fois
##abl
dan
##suite
conseil
dece
us
angl
historique
##aut
##ourd
##mande
##uer
publie
##ateurs
britann
cine
##vee
allemand
elect
tot
##tic
san
capit
ecole
##ieux
##),
##up
deuxieme
##mon
##vier
coupe
##dio
##rage
oper
##ock
japon
##gn
hum
communes
cam
syn
jan
lim
face
##ative
oly
ind
##ros
inc
tex
##mer
origine
projet
perio
situee
vo
aur
inde
membre
##cou
##assi
2016
ger
2005
olymp
##cture
##ones
sub
##urent
contra
ecri
age
population
##els
presente
bibliographie
all
durant
mars
##ument
roman
ordre
eng
##ori
ste
##mie
li
chans
##ll
objet
represent
consi
service
##dee
##pendant
succes
ale
##nee
hen
188
2004
##her
paul
2017
sign
att
coll
passe
mois
##ck
chez
##iter
journal
riv
associ
arri
parc
eau
##ini
conser
ecrit
deven
contin
##fs
##ances
ministre
phot
##aud
##den
##icip
ensuite
##ina
municip
chateau
ouv
role
##ork
atta
rue
armee
##aute
##to
main
effet
tard
##cription
compte
##rait
187
maison
mise
decouver
##cep
##iles
international
##cipe
##iment
186
realise
nomme
##yn
production
##..
##gue
epoque
##illet
##ars
charles
pet
##vie
theatre
tant
op
fonction
sau
##quer
##ime
##tiere
instit
cant
##ren
entra
mode
present
decl
pass
oct
##reg
etaient
comple
##ume
cinq
##tient
ho
##pl
fi
espece
##ith
we
##fe
retour
periode
autor
##ana
na
chaque
nive
##lles
ben
##see
##issement
##ha
##oul
six
commer
2002
ensemble
##bles
liber
fra
##ack
2003
jose
prote
auj
environ
recher
elles
maj
reste
##mbres
##ree
meda
dav
cer
aujourd
natur
francois
##fic
pris
##jours
##tien
ten
aer
football
##rige
##ture
va
indi
##ville
ara
red
certains
##illeurs
scene
##vres
som
my
##iller
ile
activ
ent
episode
supp
etabl
aug
##ril
univers
2019
seul
1999
##utes
femme
2001
tri
anglais
etant
nombreux
province
2020
toujours
##ude
##ara
œuvre
cependant
result
second
date
troisieme
mot
bati
chap
montre
##ogne
scen
##hi
##cte
editions
seconde
##ilite
anim
britannique
jeun
peti
##tent
asse
##mis
musee
republique
tur
afin
##igh
soci
version
personne
tom
##rale
vide
##temp
rapport
1990
##do
expl
jours
##ctif
pouvoir
aster
robert
##ick
##ple
remporte
lance
prom
##uve
opp
##aitre
serv
marque
systeme
rese
membres
##oun
mis
##tine
utilise
etudes
dra
droit
mondiale
juin
##ley
##bec
bon
##nelle
##yle
1998
font
siege
##illi
dit
##inture
sera
ouver
retrou
doit
##ession
lac
##orme
souvent
cinema
er
sele
ta
juillet
division
jeune
sen
finale
archite
fes
sim
##umer
compagn
##han
##ds
transf
ori
##cer
##oll
septe
##rend
anti
##ik
##usion
##œur
bu
##amb
integ
personnes
compose
compe
##men
##ho
##ient
##ister
##ye
jacques
speci
asteroi
effe
gau
toutes
andre
distrib
##vain
major
fort
septembre
genre
janvier
cad
travail
royaume
##pele
##obre
prend
##ca
meilleur
niveau
##mine
##gement
parmi
bor
##gor
octobre
##aw
colon
##gen
fille
ancienne
inform
fle
york
commence
enfants
##ys
clim
deci
##rent
indu
militaire
ir
urb
philip
americaine
tourn
voy
mouve
michel
livre
rich
terre
##vaux
##rop
="
##gie
exemple
medaille
feder
pen
##tier
##by
25
##rete
mel
atte
relig
##otes
quebec
litter
avril
scientif
##ards
ban
hommes
alex
viv
direction
grace
dirige
gl
bal
qual
jul
obser
route
bois
##par
profession
185
##omet
to
det
##ologique
##ino
jou
##contre
contro
voit
##na
patri
##crit
##aye
program
pa
cher
##uire
nove
culture
chanson
aout
peuvent
edition
##vement
appele
##vant
territoire
##hol
posi
##ity
##era
agric
festiv
indust
##estion
allemagne
##ira
numer
##ression
decembre
ailleurs
premiers
##yl
##ote
union
tete
participe
auc
##ft
30
type
habitants
developpement
rend
##orn
##rist
novembre
charge
##ieres
entraine
points
##gre
occup
nous
corps
femmes
##ss
1997
eu
creation
184
iss
aust
ri
##dere
##sible
loi
deja
association
ps
cau
24
particip
pu
##vrier
langue
coule
mul
1996
##rain
utilis
pein
##cess
haut
cela
four
italie
mas
article
##ham
table
lond
fab
inv
etran
festival
viol
rencontre
interp
##eri
##stes
annonce
21
prec
fevrier
bro
fai
##uments
mad
##alites
pont
##nent
##aly
##omm
##duit
##bourg
##mont
##ano
officiel
##cident
1995
nic
top
cond
##cent
traite
dix
183
professe
##rises
bra
principale
##xim
devant
reconn
depute
van
##dro
##ices
obten
italien
##coup
poste
22
record
construction
##este
align
mac
##dem
qualif
sein
fais
##uation
##).
communaute
quand
acade
bataille
##time
personnalite
fig
elections
style
mere
int
seu
air
raison
auteur
feu
sing
espagn
quarti
ceux
suisse
##aude
1980
os
distin
canton
lab
##oration
rac
chris
directeur
mari
stat
classement
ord
posse
longue
formation
rejo
vain
autom
derniere
##ty
var
##ocra
initi
scenar
1994
eve
derou
##atoire
##ili
##pend
canada
nombreuses
mission
martin
œuvres
lin
##ception
proprie
sem
occ
video
blanc
quit
telev
##urt
1991
nav
##asion
special
olympiques
sport
grands
orient
1992
amb
##phe
bres
rh
nor
##aces
##ave
etudi
arts
combat
bre
sort
competi
resultats
nee
vit
beaucoup
transport
agit
##iennes
##duction
cham
cele
distribution
zone
##isl
moder
##oss
pil
recherche
television
peintre
##iction
demi
##uf
...
##ysi
sortie
##ath
bern
equipes
afrique
##rich
industrie
accue
actuelle
##quelle
cong
demande
cheval
##terre
tre
lu
vin
acces
rapp
##ils
182
##dec
##itaires
iv
concer
1993
riviere
##anie
23
##ald
luc
##ko
##duc
angle
entreprise
##ael
mom
secret
belg
##inte
##cel
disc
##urg
joseph
laquelle
##we
moyen
poe
mouvement
##ange
russe
selection
connu
henri
ath
voix
##can
prece
##ulte
stu
petite
##ese
abord
considere
come
##uree
##orter
acteur
##illiam
bour
pan
##ctive
ligue
classi
noir
decouvert
caracteris
ke
##vid
179
austral
haute
mem
revolution
david
eleve
##gne
mur
reun
##rict
##cons
adap
vari
lorsque
evol
william
##did
explo
##ica
sus
##ences
##rid
2021
##sie
enreg
1970
incl
##ition
##my
fonde
espagne
aj
reseau
log
travaux
jur
hol
professeur
femin
epouse
sens
ple
abs
##ierement
##bes
##oth
##ash
##ates
double
tradition
fore
mati
honne
compagnie
##ieure
##ii
bret
defense
empire
##ielle
produit
##pond
##bo
technique
##nant
victoire
##atif
resp
ball
scientifique
station
social
marche
administra
description
sept
commande
##berg
##verse
administration
nu
millions
kar
medi
##tenant
##naire
##rant
parlement
##atiques
##onnement
moyenne
##ographique
##itation
##sions
.,
181
gene
ceinture
##chet
appel
alexand
eux
1988
trib
lien
sar
hel
gare
frere
sam
##inee
argent
esc
go
autour
1989
##iz
##air
sources
rapide
force
##ky
action
##ulaire
radio
##medi
district
100
##oute
sainte
##ades
flor
quat
gard
organisation
medec
effect
##yp
nouvelles
##quant
source
prev
geographie
bru
##acre
signe
aide
lut
evene
reser
corres
26
seulement
maur
##indre
vale
philippe
unite
televisee
dipl
correspond
##tifs
unique
##ind
ray
##onde
50
puiss
parfois
norm
cause
milieu
candid
command
cathol
##rages
##lan
constitue
democra
terme
##atis
decide
regul
diffic
cadre
##quis
pref
huit
tor
##lant
##andis
navi
films
design
notre
resta
bord
affaires
occupation
secur
christ
##tation
##odes
##ination
##sh
##ung
ecrivain
differentes
##ules
legisl
especes
seigne
enseigne
neg
##ardin
##othe
londres
emission
cate
tar
ame
aurait
arche
vainque
ress
reparti
duc
internationale
fc
##dy
engage
vir
situation
institut
##illon
coup
imm
cultur
certaines
##old
##ares
##tor
##tout
##lig
bene
##uss
malgre
rouge
##idae
##oses
claude
valle
quartier
travers
##ellement
##ttes
collab
1960
##ls
##iee
gi
##ulp
##alisation
surtout
accomp
1981
##aisons
##ase
finalement
independ
europeenne
##erence
28
wil
##ides
##ablement
rome
exper
##chi
amer
proble
##quent
abb
sciences
27
##ney
accord
voyage
remplace
appro
##key
##vention
##alog
##tice
##ess
##atives
##aisse
pap
belgique
emb
##ld
jamais
##mares
stra
honneur
##act
respons
let
jeunes
##ker
furent
forces
artis
ast
tandis
represente
hong
influ
palmares
moment
trop
##ks
1986
donnees
##ots
##moine
gauche
do
particulier
mos
ener
1987
bass
stru
(),
suivante
termine
##ications
thom
tel
##landais
##lie
##ata
bur
differents
avaient
reference
##vo
##za
##titude
##ight
1984
georges
signif
elu
championnats
monument
1950
existe
categor
die
moi
royal
soi
wal
div
spect
deta
course
##ama
angleterre
monuments
wh
premieres
actrice
##osoph
##ible
180
##rond
villes
observ
##ital
mesure
texte
sue
sm
seule
##ga
prince
terres
appl
obtient
annexes
1985
presse
##ager
collection
zones
##odie
jui
cra
arme
amour
mc
composi
controle
nicol
conserv
enregistre
matchs
cop
critique
constr
patrimoine
##lam
hotel
mine
retrouve
lieux
afric
meurt
##ena
domaine
##enes
philosoph
competition
bri
ris
civ
##mann
##anche
position
angel
bran
inscrit
##don
economie
##otte
ving
fou
physi
##etes
decou
croix
programme
libre
politiques
diver
##osse
##oile
ram
1975
occasion
theor
##pect
pours
bes
academie
gall
aw
uni
py
exist
propre
pic
##gh
construit
##lust
##onyme
chine
reve
##lon
proche
toutefois
professionnel
gui
maire
document
belge
services
commission
instru
##for
##gu
arrond
fau
mex
retra
illust
##vait
##ette
ache
##ting
chois
cycl
cite
climat
sil
vainqueur
maje
##iser
russie
total
sante
enfin
bande
victor
##net
educ
concert
##ket
declare
historiques
capitale
lequel
campagne
footballe
kil
pow
1982
gros
espagnol
mou
##ennent
meilleure
titres
##car
land
##aite
tun
dispar
sculp
1983
minister
##quie
##pres
manif
##irme
propose
edite
municipalite
##tienne
occident
individ
29
1971
##tian
sols
groupes
leon
##ala
personnage
jer
##onte
cab
voie
rock
plup
plupart
bresil
grec
mene
college
maniere
##ditions
bles
40
vous
insp
sujet
grandes
extra
pau
decis
ble
iden
europeen
marc
securite
minutes
principal
etude
psy
james
travaille
chambre
##venir
##hem
defin
fred
extre
ha
principalement
amen
dar
final
thomas
richard
ul
##temps
bron
##uration
regrou
presence
pub
##isees
##ott
eveque
##ience
##own
vingt
creee
35
episodes
bourg
fron
attrib
aband
chapelle
##att
caracteristiques
cit
albert
diffuse
large
mic
droits
interieur
arb
rejoint
31
depart
resid
activite
rele
tent
heures
seigneur
poi
post
george
fourn
domin
1979
footballeur
##ola
##cont
chi
cotes
recu
chron
activites
externe
police
suff
assemble
##let
officielle
##issant
chante
##dit
prod
##iennent
limite
espace
outre
droite
##ym
metres
##omme
##iat
##lande
reb
generale
lett
stade
iii
evolution
arm
##dia
batiment
attaque
execu
economique
vue
1976
important
##gar
##arch
dun
remar
##mbl
mand
fav
revue
hop
install
ai
##go
maitre
1978
178
##neur
da
##oux
1977
consider
vra
##oise
##anger
1972
##oti
recoit
rece
vend
hor
medic
artiste
lum
1968
##ba
hiver
hoc
oise
##cteurs
pratique
alli
##urer
possede
##ousse
guit
##ura
arc
##xte
lor
%),
1973
bernard
##iner
mob
##resse
pian
etc
court
##ormais
chant
##apti
##eth
desormais
michael
salle
##ya
nicolas
chemin
japonais
##tim
suivant
gr
##mond
##lee
##get
##del
1974
analy
nuit
pologne
##atrice
len
interet
dame
change
contemp
##oser
voiv
##ood
##tenu
populaire
lettres
allemande
temper
prendre
oli
carte
loire
athle
##umes
##tern
financ
installe
basse
##jectif
resist
entree
surf
parois
tableau
##abilite
ru
centrale
##uels
##rane
##gee
ye
##ront
contrib
desc
duree
##ita
garde
rug
arrondissement
##vile
war
##enant
##ington
fel
prob
aucun
realisateur
berlin
ros
##oli
entraineur
emplo
tu
publi
generalement
asteroide
serait
publique
##isc
##ford
##tait
class
##dif
med
vice
lorsqu
adop
##af
von
rob
nap
portug
##quete
scenario
essenti
asteroides
##dite
bibliothe
originale
gaz
az
sovie
mention
voivodie
cav
environnement
##ault
##ani
orches
##cee
polon
permettant
palais
chac
bure
amerique
brun
##vin
gab
etranger
contempor
localite
marine
celles
lun
nouveaux
rencont
oce
jun
rapidement
produits
assemblee
##ater
deg
comite
hockey
||-
##aix
taux
occupe
aupres
publication
vites
necess
possible
##lem
superieur
1945
multi
realisation
enfant
##oix
##issent
".
##ago
##ague
education
arrive
modele
ministere
##gl
vert
##itz
##usse
##mph
tourne
quitte
faut
armes
troupes
##ops
galerie
brux
sac
secretaire
##rael
orb
joueurs
exposition
fant
sold
doi
epre
celeste
##eration
##way
records
anto
sant
front
##anti
simp
anciens
progres
intro
question
guill
numero
##oue
jeunesse
catholique
1967
envoy
anton
accep
wor
##||
##ffe
##rom
dam
tir
simple
net
elements
equ
personnages
chasse
tem
##utions
vallee
##uent
rad
##ax
pot
1969
rat
##tives
##tiers
musical
perd
fondee
##ologue
kh
kilomet
litterature
jack
livres
aire
operation
atteint
##rand
plut
artistes
exer
dram
israel
##enom
ham
tournoi
##rir
000
bretagne
##ider
olympique
lyon
mass
importante
constitution
egyp
by
mau
##cy
bus
sk
tal
chin
montreal
mit
bonne
far
los
cul
architecture
##zz
end
compositeur
peuple
tels
quatrie
fiche
ti
semble
##acite
km
gestion
comprend
abbaye
mettre
##raine
(†
##dra
pac
##ary
termin
hon
principaux
taille
ide
32
##ish
rugby
##ji
mach
faisant
##lac
quatrieme
spor
##action
cœur
xxe
patron
calif
you
recense
comment
science
##the
bronze
influence
##och
##uant
facon
objectif
apparait
statis
fa
election
devenu
justice
organis
comporte
##fort
etend
33
comedie
inves
visite
aven
##ourt
dyn
chre
buts
##ives
##ape
brig
ry
bras
may
prise
center
series
condam
bil
ecl
tours
1964
empere
journaliste
conte
##moins
bill
arrivee
fondation
##ulture
##cede
celebre
1940
##olf
##ical
favor
recomp
piece
federation
chaine
##itre
francis
particulierement
savoir
terrain
conseiller
rog
gro
##ries
1966
ingen
iles
vient
single
energie
##bl
dessus
elim
1965
seine
star
enseignement
passage
magaz
##ores
christian
miss
symb
##gon
##ings
bruxelles
bapti
poly
##rick
estime
march
bul
secteur
##ologiques
assez
ouvrage
empl
##dies
vois
cinqu
relations
1962
##ail
bud
arrete
clubs
recue
derniers
ree
45
pel
##ost
aucune
confl
##ny
regime
##ppe
psych
rene
pieces
protection
intit
designe
177
##osa
code
typ
capitaine
majorite
divers
peter
exemp
chevalier
##cia
##anne
langues
etudiant
peint
tombe
##tell
maurice
sin
passer
section
explique
belle
vitesse
##ston
evolue
dos
evenements
daniel
rang
cest
organise
effectue
sang
commerce
nature
personnalites
circons
1930
##oure
gren
direct
maxim
latin
antoine
xi
juge
tue
##hic
marg
cherche
ameli
ton
##alisme
##ski
##seur
deter
gir
axe
dieu
tv
##rene
mu
rem
reven
world
territoires
guy
tend
actuel
##sib
##stru
hydro
hors
classique
utilisation
plutot
cartes
mariage
##onie
##ball
36
##hel
empereur
##aug
mathem
central
##und
nations
glo
sex
##entin
pret
##arition
pron
regiment
demographie
neuf
##ora
intitule
glace
##gi
##cule
cur
anth
manifest
60
maria
couleur
##ico
##no
edif
orchestre
1963
neer
.)
bos
californ
##oign
##tere
frank
##azz
##orer
lignes
max
augment
##enses
##rite
repartition
montagne
reti
##ms
partis
surface
##nie
entreprises
semaine
##chec
ferme
urban
basket
mess
original
australie
uk
chinois
##tention
1958
contrat
##ield
##hen
concours
petits
merc
##terie
mait
impl
valeur
avent
colomb
fiction
quoti
militaires
##gal
vu
chim
##yer
parties
##wa
##dien
hu
prim
vehic
powiat
##rin
lesquel
##tisme
cere
##aste
couver
barb
quin
ocean
tunis
continue
##gues
id
decrit
devenir
associe
1939
reserve
##red
metrop
alexandre
importance
massi
##itant
dele
bibliotheque
quar
commen
80
pense
representant
##000
maroc
guillaume
image
##fil
choix
automob
##nd
chansons
henry
##riche
##ieuse
##gc
coure
1961
##rendre
sor
studio
altitude
respe
incon
conditions
arriere
bet
175
ami
donner
lux
structure
monte
left
##ling
doll
hug
rur
##hed
##agnes
##tenir
prepar
##chen
soutien
quant
frederic
fusion
pourrait
lanc
black
laurent
information
1956
176
phase
propos
categorie
faible
spectac
##ficie
kilometres
heure
1959
varie
steph
pi
moderne
##ctement
fit
hal
presque
mecan
page
##ffre
parce
longueur
##hu
contraire
neu
crise
modif
concep
##otion
##ison
por
compris
propriet
toul
fol
navire
##eter
mariti
##",
officier
ze
laisse
hos
somme
relie
lieut
infant
##tu
nar
endem
##ni
magazine
(«
camer
memoire
forte
1944
syndic
##urant
fro
dessin
temperature
artistique
italienne
##andes
parcours
##arde
%).
issue
##ailles
magn
soul
carl
##onymie
rose
gri
americains
##pt
##ake
##bi
##bie
bureau
meth
photographie
##ctes
note
##ouss
##orde
cle
esprit
pati
sab
locale
architecte
sociale
##antin
##sif
regions
sovietique
freres
doivent
##mat
producteur
##mment
affaire
formes
cost
statut
souh
mol
ine
mondial
connue
inferie
cime
deme
##opsis
avoc
compar
opera
preced
west
gol
via
jes
accompagne
train
##ositions
moteur
##ende
indique
##cal
fonctions
alger
1920
entiere
dispon
paix
nean
aliment
beso
polic
moitie
concernant
appare
identif
bio
francaises
proces
gouverneur
avance
frequ
pied
neanmoins
##kh
##chee
nos
ouverture
tim
actuellement
##agement
autorites
conserve
dat
ait
marse
participation
assass
##ado
chanteur
decouverte
piano
##sp
##burg
qualite
danse
elector
coop
from
dor
bert
commerci
##iger
autriche
1957
ko
##kin
34
vel
rent
##arite
##rime
mete
decision
##bon
hall
##uil
hauteur
circul
sl
diplom
aqu
quelque
lieutenant
christoph
principales
islam
celeb
derriere
ouvrages
##istan
1955
congres
flam
ox
##oport
##ographe
pilote
physique
excl
##heim
##omie
reprises
bay
autant
royale
dispute
##inet
##tieme
##rat
memes
##inaire
alf
##tisse
1914
tes
continent
##zy
ign
lutte
etape
dernieres
1948
aller
atlan
##rad
rien
foret
##tements
affe
surve
##po
proxim
rasse
batiments
70
docteur
bob
techniques
prison
pape
loin
##astique
##ek
paralle
parle
eaux
##adie
endemique
##ury
augus
##uelles
emploi
city
37
1954
opposition
vf
##sibles
##char
morts
infanterie
etudie
ici
reine
##ples
##ussi
debuts
composition
vienne
ot
attra
rendre
lois
format
permis
bassin
outil
inspire
canadien
##vet
figure
atel
##ada
boy
couronne
wall
##fi
bol
web
partage
dio
gagne
canal
##gerie
strateg
##cha
##any
##20
1952
veut
pin
tribun
suivi
jouer
seront
tournee
1946
lettre
sav
proximite
##istique
##ctures
republic
dispose
exception
idee
alph
##ida
declar
##uk
desser
hand
composee
simon
peinture
tire
utilisee
certain
poursui
parents
agricoles
human
##yes
##sive
##orth
regroupe
##riques
inaug
bomb
compos
gam
trouver
vent
pages
1936
##sier
frontiere
fonds
ouvert
analyse
traduction
1953
hyp
##ern
##yo
##50
cimetiere
press
borde
mare
alain
repro
theorie
-),
##icite
synopsis
cd
gagn
imperi
victoires
sœur
lis
sig
beaux
1947
connait
telle
sw
##oud
defini
concent
ali
##erent
##zo
norve
chau
1949
extreme
cru
couleurs
local
qualifie
interprete
mig
suit
38
jon
lic
californie
circu
##issements
##range
types
eric
ves
##pin
superieure
saisons
protes
journee
##lor
moscou
travaill
noms
90
vac
(°
statistiques
verit
##itch
##aid
precise
##roph
blanche
##ativement
sommet
prot
##30
luxe
homm
voul
publications
archives
allemands
sn
jau
cathed
internet
carol
##alogue
cell
avion
##dier
##ader
vote
##ultes
probablement
soldats
recensement
juni
##ila
civil
metrage
dollars
consacre
##ibles
civile
auteurs
eli
auton
poete
consequ
usage
roger
automobile
diplome
##quet
semaines
marcel
liberte
##wood
depend
win
1951
##œurs
stand
commandant
mexique
senti
parten
assist
recherches
##ube
##yme
religieux
chic
1942
##igue
##uellement
sites
##onique
rav
obtenir
appelee
etienne
critiques
"|
##anda
juste
creer
circonscription
pois
zo
directement
enne
##illy
objets
etrang
eleves
communication
clar
play
colonel
cord
dramatique
informations
materie
##dd
1938
couple
morte
telefil
##pre
temple
diverses
polonais
dest
resistance
»)
inconn
##ium
adaptation
##enc
##chement
lycee
##mbourg
marseille
ther
epreuve
construite
##ige
##ics
surn
candidat
##ress
textes
graph
urbaine
hopital
inn
mieux
medecin
dr
decede
ib
ambass
##cide
specif
arn
peri
laure
reprend
defaite
##naires
repond
##10
lumiere
##sen
offre
cass
contexte
presidenti
##chant
bout
alpes
tente
mascul
deri
bir
amis
##ato
zel
familles
##cus
refle
##abe
problemes
1943
conference
personnel
din
##olo
process
fru
1937
clo
legion
algerie
cardin
sole
proven
eut
##rol
exploitation
park
1941
##ricite
aeroport
tru
tok
##icile
empe
proc
tw
xvi
nouvel
forets
##entine
diffusion
juifs
##atur
xx
roche
conv
puissance
debute
##mber
##dom
jardin
courant
independance
##urr
noire
regional
albums
().
designer
1918
king
volume
fete
##sons
boule
decor
arre
##gin
##ota
cinquieme
##onge
diction
astron
##bas
asie
stock
romain
##ory
ciel
collaboration
##iale
profonde
futur
prive
prefe
historien
##fa
impos
chacun
##orp
##uet
wash
##graph
feminin
##ht
agriculture
expression
enquete
##atifs
##matique
nucle
ts
abbe
##abeth
pom
##onse
orbite
guitare
denis
changement
maisons
revient
princes
174
orth
##aro
eug
assure
responsable
##idi
milli
places
camb
transports
ferro
##manie
cathedrale
pacif
scol
##mente
##form
mark
euros
diss
bot
bab
comptait
39
##aissent
tome
deroule
1935
caval
cler
retraite
##run
tenn
##arque
naz
##mit
disque
sand
metal
transform
franco
relation
vieux
differen
1933
slo
filles
angeles
arth
##times
xv
liberation
##lip
toulouse
48
affirme
##pa
##abil
photos
traverse
marin
lan
tran
integre
vont
projets
echec
cout
navires
etablissement
love
risque
processus
marchand
##din
grave
maintenant
municipal
voies
rab
matiere
##omes
spati
42
formule
patrick
##ao
##erson
repe
manque
longtemps
gh
soir
edw
nommee
cast
apparti
blo
##uee
paroisse
dioces
officiellement
cycliste
awards
animation
washington
##herine
pon
dj
##cht
sene
chanteuse
expe
pse
iran
##tures
44
regne
1934
ratta
societes
lee
1932
##ial
mour
administrative
enseign
##uves
##ius
devait
##sa
dre
##ami
##sibilite
naturel
liees
ol
hame
britanniques
##line
propriete
nour
atti
##ua
doute
##iant
##arm
##ovie
##dium
refuse
plantes
originaire
mauv
pourtant
chem
oblig
las
mesures
banque
animaux
.-
ecoles
electron
fu
fen
voc
principe
##tile
##ommun
##ulation
deputes
##ctivement
capacite
##ona
fur
line
echange
maladie
##tees
##aliste
fave
inscri
gil
oppose
gor
distance
stre
##uts
documentaire
hou
perdu
renfor
label
operations
##tieres
fabric
poids
big
scenariste
##ize
consac
anciennes
normand
deplace
ambassade
gabrie
##sivement
impose
##icien
tennis
vendre
experience
philosophie
fun
ott
gerard
##ouard
promotion
hommage
##ero
reforme
##rien
##atures
petites
vincent
ferrovi
dessinee
##osph
edifice
exterieur
immedi
##tle
imag
##main
romaine
reel
medecine
rive
sportif
mandat
##iciel
neerlandais
fondateur
mary
portes
stan
##page
jim
rester
rot
meilleurs
diman
probleme
##ipp
villages
obtenu
cuis
spir
destin
reunion
prisonn
contes
core
rio
images
milan
pseud
##tiens
##wn
essentiellement
cos
##tres
armees
und
peche
1929
##vage
sert
vier
telefilm
litteraire
demission
salon
proce
##jon
live
##voie
filmographie
editeur
##ander
conflit
difficile
descend
dau
reli
plate
largement
##oto
echap
gens
52
##anes
bordeaux
##itations
traitement
ari
trente
consomm
metro
museum
abandonne
tient
reprise
claire
envoye
plein
element
##cin
ker
citoy
##yd
41
conver
convention
##ciper
##mique
##seigne
tib
matin
finance
tax
dela
##avant
##mission
realite
locaux
mang
socialiste
remplac
jules
##mina
utiliser
1928
sporti
discip
fas
dal
##har
appelle
##istres
chicago
stras
cub
##fer
chute
aspect
contient
croiss
publics
##ario
etudiants
##ilier
1931
supplement
suivantes
##nees
resultat
ach
ques
accueil
franch
##monie
acte
##ust
51
invite
ling
actes
evenement
maritime
##nels
expose
simil
jazz
american
arret
##iro
##gation
rod
necessaire
glob
autrich
surp
importants
heros
##ametre
portant
faveur
grece
##cen
fide
kn
##aves
etoile
dimin
chate
signifie
catherine
sports
commercial
nam
ingenieur
separ
fal
laur
suede
voiture
medias
baron
##mel
realisee
acquis
cr
##uisse
adam
existence
university
##ceau
##atic
##rome
##dam
47
edouard
lune
caractere
conception
up
soleil
regulierement
infra
##illa
peine
circuit
avocat
plane
privee
office
irlande
unites
43
endro
musul
-||
##eree
ga
##commun
vente
ww
classes
permettent
##raient
enfance
han
parf
phenom
sag
##bel
publiee
apparition
##dae
arabe
espoir
##van
dedie
perman
menace
boul
##sel
geneve
chance
##joint
dub
sun
ressour
emman
bac
renouve
##iquement
1924
ak
participer
cardinal
materi
syl
carre
pun
diffusee
smith
##esie
rejoindre
##nelles
cameroun
faune
connexe
aura
occidentale
agence
olivier
rol
##hal
theme
disposition
grav
souff
##inat
coe
##cid
determin
champions
##irent
##vard
legere
##erne
dimanche
als
##oty
subs
##ror
masse
1919
46
diz
minim
calcul
acteurs
rub
plu
detru
mediter
ruisse
##phie
ajoute
pros
tribunal
1925
remon
effic
inten
emer
romans
systemes
rare
##gence
rencontres
##ridge
decret
tche
utilises
##bonne
##mas
musicale
##iche
500
pyrene
hai
victimes
##ici
uniquement
alliance
##rs
ken
##ets
commandement
permettre
baptiste
fleuve
religion
##wan
cui
catal
conduit
dictionnaire
refus
portugal
paru
aver
traduit
sauf
concept
piste
proprietaire
75
fern
distinctions
##jan
micro
culturel
##ptions
dimen
orle
mediterrane
atteindre
entierement
1926
bad
prefecture
antonio
superficie
presentation
##atie
fus
jeanne
ecrite
##irs
methode
approche
##avier
effets
55
japonaise
douze
##renant
egypte
afflu
##orial
ecriture
##bor
labor
bloc
souver
concl
application
mots
with
europeens
veritable
moyens
1912
huile
densite
restauration
##ignon
166
famili
sembl
##peau
usine
dune
sieges
negoci
etrangeres
''
affron
telles
coureur
spr
1927
altern
accueill
commiss
##ogue
actions
pression
faisait
mam
fall
pens
eviter
##illee
communiste
exempl
nobles
##autes
arthur
demon
##dios
madrid
dete
##chel
##tur
##llerie
inh
aig
separe
##aya
denom
1910
sorte
trouvent
##ried
observatoire
faits
conseill
typologie
patronyme
legende
strasbourg
1900
##aka
ah
168
##quin
german
64
certaine
universitaire
dite
essai
dessous
soient
##ive
ere
bateau
anglaise
devenue
importantes
##fication
bilan
proch
interpret
##nh
employe
diametre
##roit
##nier
htt
gmina
##mark
generation
dol
puisque
49
revol
gon
naturelle
discours
dv
deli
sebas
electrique
lire
fixe
argentine
##zer
renseigne
quotidien
interpre
##usement
pale
legislatives
questions
revele
##cie
##umb
##chal
proje
titulaire
eto
hongro
164
ira
##ographiques
absol
mains
economiques
tan
##aceae
passion
##ship
##riers
lev
navig
mut
joe
event
autorite
elis
construire
54
portrait
tourisme
1922
170
noel
ped
diocese
##isser
geographique
##ormes
173
professionnelle
montage
##gent
provence
##app
marquee
absence
ecosse
##landaise
:/
##ife
bulle
##ery
rhone
pla
former
toile
totale
budget
ressort
scho
enter
she
printemps
##olit
dig
##ariat
galax
passant
essais
travailler
53
1921
modeles
reseaux
initialement
score
##abli
xixe
napole
##jour
##ombe
##isant
##zi
corre
abou
ferroviaire
coun
rall
##sey
##selle
##telle
termes
championne
##ula
yves
asi
devrait
proches
pav
certif
insee
##pent
##court
##arre
disney
167
incar
suivants
abandon
##hr
##lav
ceci
sauve
##pee
://
ouvre
##ctor
##dan
lendem
refug
##lige
espagnole
##stra
barcel
milit
orleans
revel
150
avenue
presidence
chœur
entend
complete
pyrenees
honor
devint
1913
##field
materiel
www
liege
perform
connaissance
lh
maz
hill
male
appartient
##ament
medie
##anges
coord
math
scientifiques
marne
attend
1923
napoleon
bleu
manus
xii
myth
frag
collectif
impression
hans
##mor
santa
exten
eval
francoph
spectacle
nul
lendemain
lord
documents
seuls
besoin
reuss
##tain
virgin
raymond
##inaison
169
##ortent
confe
valeurs
corp
attribue
blan
##ali
precedent
##oe
##paravant
reglement
##ualite
carb
auparavant
cous
ethn
destine
pouvant
parole
fortement
majeur
complexe
comtes
##las
statue
##ban
plat
tradu
##mite
cm
semi
presidentielle
aggl
##oite
nie
agricole
##gg
concerne
detr
|}
elus
quas
parvient
rurale
##jou
agglom
wes
##enez
instrument
mm
identi
ngc
mons
jurid
emmanuel
171
poursuit
specialiste
quebecois
om
affir
atelier
172
pose
one
immediate
democratique
finit
doctor
vite
pointe
annon
acce
avions
##cant
internes
agent
##adel
guerres
ecriv
representation
yeux
neo
##erts
1866
definiti
wat
seg
tokyo
ressources
equival
compl
1917
##apes
aires
loge
decouvre
##iaire
propor
hongrie
christophe
##ortant
##atri
effectif
##sse
archeve
propres
coree
attraction
56
##rine
judic
accepte
porter
london
vierge
appartenant
##peur
heb
sociaux
##mans
temoign
57
atlantique
##ild
evoque
##reur
hier
lesquels
mah
cabinet
voire
sir
gas
volont
mans
domicile
##itude
euro
##ows
##oni
ny
##osc
baie
decouv
active
sacre
invent
day
exam
assurer
cade
##iev
buc
nice
##col
##mm
sociales
appell
gou
urbanisme
juan
riche
condamne
##dois
vaisse
tomb
parler
accuse
##amique
##ieuses
feminine
expedition
58
##kov
will
##ibre
senat
planete
##ily
regionales
##orts
eugene
##oree
teleph
renaissance
##bs
adjoint
resume
alfred
1911
##oble
##ancy
hosp
##hodes
rede
south
##odo
vou
cu
precip
chal
pur
julien
bata
logiciel
##asa
dominique
ruisseau
raconte
dynas
65
auguste
dates
«",
.),
representants
fontaine
##low
##ima
##roy
##cell
##cs
senegal
savoie
##anni
nantes
tai
chose
lille
mines
green
legislature
##aki
##uaire
chefs
unies
gue
lion
traver
populations
issu
benefic
mouvements
##mir
mineures
desti
##fel
##off
fisc
batterie
##olique
modern
appre
award
##isp
accident
intermedi
vole
jacob
consul
combats
manuscrit
manuel
recompenses
russes
gabriel
nait
chemins
niger
advers
kon
contrairement
160
toponymie
##orph
vivre
lep
jesus
origines
dir
candidats
##iees
deroulant
rai
how
town
remarqu
meteor
cycle
petro
midi
regionale
##chent
vivant
united
confirme
planetes
scru
serbie
domaines
massif
sul
recit
pouvait
vision
reconnaissance
augmente
disponible
traditionnelle
provoque
poesie
##astere
cn
##geois
variables
white
trophe
lot
limit
mod
##xion
##oques
bag
lnh
pleine
kat
open
rappro
rhin
quitter
retrouver
##igny
lamb
rest
ouverte
##iend
oppos
raisons
spirit
tab
secondes
federal
faculte
metropole
##clo
plateau
monastere
hautes
##llement
lex
##teres
etablir
profit
##nis
##alem
independant
missions
croissance
emile
hun
baseball
##tivite
plans
collabor
turquie
pes
tam
##pet
biens
##tissement
armen
expri
condition
##hl
contact
pretre
##ardo
eglises
etoiles
francisco
##hes
##ray
rein
edit
rig
internationales
symph
echelle
##iendra
crois
etablissements
etabli
utilisant
reconstru
##aises
vehicules
##cter
ja
rues
ant
quoi
realiser
recueil
marins
facade
finaliste
gast
identite
survi
rendu
trace
miner
satell
revanche
##dor
back
chapitre
these
athlete
##intes
haw
reussi
souvenir
regles
animal
regard
##dele
1908
race
serbe
mairie
precis
jaune
##amin
choisi
locales
ski
suedois
scenes
##bach
lud
pales
reac
eloi
walter
branche
85
ryth
400
princesse
##pi
barcelone
rand
solo
sait
lour
viet
lorraine
protest
touche
##mettre
productions
162
cercle
potenti
bai
oiseaux
liee
unif
villa
charl
river
##icale
fleur
163
68
1915
agglomeration
relativement
##itie
marques
esper
artillerie
##liquer
jane
institution
brown
##sc
1905
color
ment
cross
69
chamb
##fl
dure
milieux
balle
##sta
bak
exclus
##agon
##gien
society
kir
gio
1870
kam
##wick
tort
band
66
tiers
##mation
##rade
tch
##uy
standard
##cop
##uter
bav
organisme
disparu
heriti
murs
edward
croise
##ning
165
school
scott
##med
##iance
destru
concurr
chronique
squ
##bres
##agers
2022
defend
publiques
aeriennes
retourne
##ceaux
indic
offen
dvd
connaitre
##haus
succede
hauts
versions
league
##tenue
gold
incend
plante
mr
##olis
nage
aventure
volonte
##vaient
proportion
isab
ordres
numerique
guide
colombie
junior
nik
canadienne
mid
cart
##aissances
residence
%.
##gio
modes
cot
blesse
flotte
##ken
presents
ron
north
out
terror
##ed
eclip
illustra
300
laureat
hard
##gos
59
are
##ometrie
1820
##hors
developper
sais
##ensis
pit
classification
difference
brigade
cf
recru
etym
dessins
72
caroline
accus
##lette
puisqu
ill
gardien
##oman
##adre
dane
religieuse
toit
##ws
quil
chat
##len
1916
prolon
quanti
venise
localisation
tibet
milliards
sax
tournage
salles
62
botan
provis
dynastie
##ologies
conseillers
76
sejour
zur
##lier
confir
bis
culte
officiers
nationales
annuelle
gust
prenom
generaux
programmes
territori
humaine
marquis
feuilles
trad
##andre
transp
bless
publies
mobil
god
156
quartiers
cesar
neces
crimin
musicien
grille
exemplaires
book
avi
demeure
159
barre
calend
dang
eb
inse
1907
1906
sportive
releve
performance
vesti
normandie
felix
ki
jones
soc
musiciens
constantin
respectivement
lies
victime
necessite
texas
##inger
fenet
distingue
mille
quart
nef
sixieme
phare
rassemb
1909
scrutin
##oung
##ols
actif
rapporte
consommation
arbre
gilles
vendredi
experiment
accueille
informatique
kaz
frances
aime
##11
vall
emplace
mini
##ilement
##arte
elab
sher
escl
decenn
prete
araigne
espaces
chir
ordin
venus
##ciation
catalogue
##uisent
##ommee
luxembourg
intervention
initiative
##oule
applique
##ctur
67
##diction
ner
##ruption
joueuse
faite
##well
aider
prises
##uisant
##als
##uler
convain
158
##tig
concerts
##udes
automne
hav
imme
ajou
simplement
thier
posses
fleurs
concu
redi
souhait
trains
panne
##rus
penn
show
repris
hub
nancy
possibilite
vig
florence
congo
manifestations
finances
siecles
archeveque
augmentation
wind
repert
louise
##tiennent
naturels
inspe
reconnu
coc
pole
74
##cio
prevu
associations
bun
bruno
vrai
63
serge
routes
house
##bc
##stein
pp
amir
adopte
pant
anglo
wood
rares
ecrits
proced
consideree
clair
expositions
oh
##quoi
##uth
has
ceremonie
reaction
##ieures
linguis
##bin
manche
anime
reponse
contribue
prep
trafic
bosnie
##ason
attaques
##eries
##gs
##ople
caracterisee
finlande
amoure
##inoise
enle
##arc
produire
benoit
respect
nucleaire
voitures
appr
##rophes
majeure
fabrication
radi
violon
chevaux
nau
157
##ju
##oyer
intel
immeub
##ellier
oiseau
amenagement
##lia
xxie
protege
cesse
fantas
plac
ence
recompense
byz
more
fres
venir
kim
##isses
samedi
moul
##cession
moulin
esti
hit
sculpteur
##otype
canon
etrangers
apporte
idees
crist
illustre
preser
interro
77
pc
##atin
##tenus
vil
##zon
escal
changements
1904
##ographies
tenu
implique
emprun
organisee
##aco
europeennes
##awa
para
julie
##sim
##alie
##archie
danemark
million
communale
paroles
legend
ric
apprend
lesquelles
bases
voyageurs
bourgogne
cry
##ladi
courte
tub
entoure
ear
provisoire
fonctionnement
ok
regle
##via
clip
democrate
endroit
78
##ctives
##ology
privile
envers
marechal
##12
masculin
blue
tol
73
retire
hay
heter
##omo
montagnes
##oma
collections
cli
hypoth
zelande
vehicule
fri
envis
proteger
excent
(,
##ull
##agu
sever
##osh
frappe
##ulaires
kur
1901
##pant
elisabeth
basee
##tiles
vas
studios
senateur
gout
bow
##aga
departemental
germain
abrite
right
;"
revend
tak
##tir
ecoss
nov
our
montp
discographie
feme
consiste
datant
appareil
irak
anna
##zen
##vees
couv
##span
interne
mathematiques
champs
cooperation
pacifique
kel
impact
."
incendie
machine
recip
life
##ox
##lent
classements
etage
conservateur
rup
##ification
evang
transition
provinces
##alises
##illons
lundi
professionnels
fie
harry
tresor
tay
##mant
fortif
scand
karl
##40
gun
attent
rid
inconnu
federale
dirigeants
game
choses
fabrique
marguer
pouvoirs
norvege
##aret
photo
terra
young
teles
entretien
venez
stations
intervie
##issait
dic
consult
ky
law
souhaite
antique
immediatement
##ias
tig
##liques
choc
fame
electronique
banc
pronon
fir
contemporain
##orce
##dal
ji
##inage
##ogie
high
##hard
roles
encour
normale
risques
##orite
communautes
etymologie
##gra
##ysique
duo
cup
ka
gris
##ariste
intercommun
sche
noblesse
##tille
coal
##tein
jud
detruit
munich
##rons
compil
attes
aine
selections
emplacement
physiques
introduction
1903
hil
demar
ille
humains
finales
liaison
test
rende
pascal
courses
##ouch
##ando
allies
pratiques
solid
amp
attention
relais
accorde
williams
prononce
emissions
##win
bell
magas
habitat
secre
aerienne
prevoit
entier
athletisme
pourquoi
##anna
##ilie
entrer
##illance
61
etablie
humain
##ulsion
##olie
donald
01
vaste
marches
##onto
supre
dispos
prisonniers
climats
roch
orgue
peters
kal
kong
88
lecture
extension
##kins
##adis
calendrier
hori
##till
drame
##dienne
giov
##usalem
##rieres
essay
##rales
prennent
##cre
120
auto
ukraine
onze
institutions
couverture
suivre
boston
fried
crit
ernes
##eng
americaines
joh
%)
mix
volumes
##urie
difficultes
tony
definition
82
leader
mira
##metres
correspondant
indien
resse
quinze
precedente
raf
##ivers
1902
street
auraient
##alise
transforme
milliers
mexic
##row
##issi
orientale
portugais
interpretation
mentionne
arbres
sujets
amiral
95
anat
reussit
competitions
##ator
trophee
##oz
71
ist
##ovine
company
suffis
imperiale
mettant
cancer
marguerite
roc
##aliser
##ador
ministres
155
tron
confeder
orange
##ria
dehors
presentes
jerusalem
mario
manches
licence
##yde
chacune
abd
tcheque
centres
internationaux
1890
cinemat
niveaux
garonne
theod
phenomene
araignees
sortant
lancer
francs
inferieur
enregistrement
complet
ral
tunisie
nick
violence
##gas
inventaire
charges
lew
possed
leop
abre
progressivement
langage
##tics
##bus
%,
proprietes
primaire
brie
luis
solution
restent
##rif
faute
later
##iement
island
totalement
septieme
http
poemes
presidente
plais
aile
organisations
chretien
bulletin
nationaux
inclinaison
soire
##tish
steve
ane
mike
adapte
epreuves
comportement
speciale
liqui
00
grecque
debat
ges
servir
jury
##aria
chiff
rennes
parallele
forment
connus
montpellier
1880
provo
sortir
africain
intelle
##asser
remi
cyr
portee
##illot
ajout
thierry
reich
polonaise
sta
ordonne
industriel
decors
autonome
bang
commissaire
philipp
##ters
barrage
##ito
fores
artif
rois
vos
ue
exac
##illant
intellect
nomination
perfor
refer
##lame
assiste
lam
chinoise
issus
duche
coalition
photographe
##ava
alexander
quad
coups
consequences
philosophe
ku
corse
myst
grenoble
kab
caus
84
bau
alsace
berg
##nac
modernes
tentative
##erences
peintures
perte
sœurs
ency
mole
##helie
liban
boudd
##zeg
92
cooper
veget
##arg
86
##pen
call
##ourne
remarque
##itent
secondaire
trone
##onnes
promu
orthodo
time
perihelie
##shire
##igueur
technologie
enque
1898
sculpture
noy
actifs
rouen
boulevard
fortes
romanc
contenant
drapeau
interdit
consecu
instruments
accessibles
presenter
allant
integral
limites
arist
pous
madame
hongrois
##illage
##com
##imes
pak
87
intermediaire
wolf
verte
croy
impri
goth
intellig
immig
##sk
majoritaire
contemporaine
recuper
postes
quelle
tap
symp
adoles
»),
apparten
metz
mixte
apprenti
toronto
##tia
pira
contenu
declen
sebastien
79
utilisees
##ther
deplo
gym
poule
circulation
cafe
ecrire
baisse
lourd
inverse
chiffre
maximum
blancs
definitivement
##redi
laboratoire
selectionne
##rase
america
81
hipp
##utation
presentant
##lah
acheve
appeles
poursuite
hes
johnson
precipitations
recemment
oscar
ukrain
decro
recol
ran
legerement
moteurs
##œu
chaud
irlandais
##itions
tram
epoques
##lave
policier
reguliere
##erb
aud
##rans
liberal
oncle
africaine
cuisine
##urre
marty
tableaux
mala
carlos
laf
##gene
estim
noirs
rappelle
medailles
night
##arts
benj
##cite
demand
ford
preuve
installation
avis
##criptions
rappel
##omique
holl
cantons
epous
basil
papier
99
danger
arabes
96
vertic
acqu
communal
mathematic
vul
depose
procure
##uan
frontieres
roumanie
johan
excell
vendu
##ella
methodes
05
confie
excentricite
jackson
##heure
03
fondament
cale
consequence
avenir
carn
1896
kra
melange
demen
free
accro
##lif
interesse
blues
##wer
kan
consc
brian
auquel
laisser
donnant
transfere
##ough
vio
evid
bale
casse
dauph
disposi
kun
participants
syndicat
tac
inquie
gouverne
##physique
coute
##ouri
alco
team
parlementaire
##pective
glac
1895
columb
declaration
##tz
structures
metropolit
06
symbole
suis
victoria
georg
lancement
caracterise
atm
##lis
sph
toponyme
ange
##ovation
good
gib
cultures
communaut
succession
aventures
'«
##ogenes
monsieur
way
rejet
comprenant
secondaires
##ingue
##ione
history
ecliptique
report
##19
»).
##arn
detaillee
strategie
1899
##inations
fan
ventes
greg
##nam
religieuses
chev
bin
bataillon
neur
multiples
clin
australien
giovanni
histoires
responsables
etro
ivan
autrefois
performan
oxford
judiciaire
enceinte
sanct
equipage
trom
marti
##demment
1889
##olor
etapes
##hist
isole
89
pul
vii
portent
centaines
##dis
ost
fich
group
doctorat
venant
oblige
culturelle
##ashi
jerome
completement
##cier
rouges
conservation
mace
##onnais
##ouche
preparation
pomp
achete
samuel
east
conservatoire
herb
merite
syrie
assur
chili
##eme
meur
##romp
##ovic
##rasse
journaux
souligne
libere
equil
enfer
appu
exerce
kos
dossier
wi
152
hospital
##sterdam
1860
ore
podium
visant
delegue
mater
classee
ecran
##antage
##inite
83
##rac
##ims
genie
vladi
##15
indones
triple
destruction
isabelle
tempor
logements
##uz
##atel
constituee
francoise
gere
sequ
##oo
roland
subst
opin
##atoires
fat
##uma
guinee
sophie
donnee
brut
couvent
##vation
compter
07
repos
lav
chale
amsterdam
herzeg
galles
perse
inferieure
affecte
dames
feuille
ameliorer
##grou
got
disparition
soule
mik
inscription
hameau
1897
kl
herzegovine
ferdin
continuer
provenant
jeudi
execution
tiss
dirig
blesses
celebres
battu
banlie
week
affluent
##itage
rapports
ecologique
maitrise
plas
arte
mecanique
naturelles
##long
org
##rigue
immob
transfert
occit
ennemi
##rennent
pensee
elite
frequente
absolue
gilbert
##ologiste
04
peuples
##agent
ever
93
nest
1893
infrastru
saone
œil
##seurs
benjamin
ing
repar
etablit
rit
##tations
atmosph
154
alice
##enaire
asc
pieds
dirigee
amateur
pedag
153
exil
proposition
libra
universitaires
defait
hell
cavalerie
aim
vot
saut
volley
ens
urbain
attache
pierres
rd
ross
tendance
wol
##riss
affiche
1848
1er
tuer
plaine
audio
##ennes
veille
flore
rousse
costumes
##iries
anthrop
seraient
amene
vau
adresse
depasse
##regation
##oria
##uait
objectifs
quantite
themes
wid
##001
prati
enta
##--
ench
##...
davantage
preside
##80
##chets
crime
##fait
limitrophes
marqu
jar
jord
1830
prague
menee
##eno
viennent
performances
cache
##sifs
invasion
revenu
##aster
revenus
##deleine
naples
engagement
mauvais
##illard
best
detroit
charlotte
vise
flu
huitieme
cs
dimension
pousse
ss
interess
1885
ambassadeur
amph
memoires
juive
cure
moh
administratif
1871
##oie
bertrand
text
##dits
##erte
##sch
erige
soup
gend
divise
##zieme
urss
lah
neve
##oine
holly
row
evo
##uff
##ardins
noter
latine
montee
ponts
##ires
prefet
inaugure
supreme
mercredi
02
tenue
compagnies
egalite
tang
comparer
##agas
infe
situes
##rar
##clope
compt
##dir
auver
conduite
similaire
stephen
##domad
stephane
pharm
annivers
reprendre
##ulent
materiaux
responsabilite
resolution
##ogene
##vite
departementale
classiques
capable
citoyens
autob
saxe
hugo
manga
traces
##onymes
dragon
hein
cyclisme
revenir
pd
chiffres
vaisseau
canons
anten
lag
jr
signal
paysage
):
partisans
drag
amenage
##ingen
##oide
97
shar
romains
##endo
remonte
##chon
denses
appellation
##quier
##feld
versailles
travailleurs
riches
dessine
##igan
reception
lady
);
##enz
message
jusque
130
assistant
appui
individus
achet
##ody
reduire
og
chretiens
saints
scolaire
ernest
succe
cellules
diam
ontario
comprendre
chien
atteign
calc
grade
besoins
mardi
interpretee
transmission
gagner
nich
entour
ordonn
accent
##laces
profondeur
##uela
covid
peau
faux
dangere
##king
chen
##iana
nourrit
##str
##agner
cah
totalite
##oides
bombarde
poeme
##set
##agan
journalistes
aix
09
1894
british
carlo
domes
specifique
##aia
vaut
capital
electricite
od
evac
##quee
had
cover
soutient
##rik
ages
##inal
##tina
ash
equipements
149
##ipel
electorale
installer
secours
affich
##wig
genes
sent
mali
navy
##ova
rud
parait
cassini
nel
coul
cylin
castel
1892
salv
executif
laus
cannes
##cc
argentin
plant
madeleine
chretienne
justif
##ondre
hebdomad
catholiques
industrielle
bey
aviation
satis
reduit
georgie
##omorph
maires
quasi
##titution
##ios
equipement
democratie
pion
trouvait
retrait
##ep
##onnee
##oly
portra
approu
revolte
bandes
pilotes
##bur
populaires
produite
##akh
vieille
gregor
beneficie
##erc
semin
rassemble
##rices
installations
prepare
##itte
echelles
utilisent
exemples
taylor
agents
maladies
sat
capture
hydrograph
ras
musulman
xavier
remplacer
1891
mediterranee
constituent
leger
##inant
batt
colonie
exprime
##so
eccles
intitulee
##phy
anthony
helene
lewis
variete
##uki
##quite
presentent
negociations
##ventions
lob
soiree
kid
##vaquie
essentiel
water
etudier
deuts
vraiment
##uge
variations
habite
interets
derive
##aries
cordes
observations
if
defenseur
procede
bresilien
ferdinand
##hou
anciennement
##gy
pyram
alimentation
peler
alan
penins
suz
metall
lyn
heritage
##16
homonymie
confiance
dup
phys
##rot
##stre
declin
principes
##det
magne
laval
conscience
94
##atus
folk
relief
##inson
entrainement
plain
restes
pauvre
necessaires
peur
##onale
presentee
clocher
xiii
##fia
changer
golden
##naie
fis
calais
decri
tues
##vale
autrichien
vecu
bouddh
elevage
meurtre
departements
soins
gamme
master
##stad
lat
chall
lap
##nage
pain
notion
##bu
##vanie
##sile
limitee
poissons
##ties
prenant
chercheurs
cris
emig
prairies
##sees
tet
facilement
##oirs
unes
due
enva
1886
vars
little
mises
genres
125
singles
rail
concentration
seuil
elevee
##leur
prit
##side
##zig
envisage
comptes
complement
soix
rt
monnaie
frequent
1888
ailes
clermont
mobile
eliz
floride
autoroute
meteo
gel
##less
identique
different
revolutionnaire
count
reims
##rophe
##ben
conferences
##itt
98
##tiste
schw
##olet
representent
cambridge
bourse
##mad
noble
directe
observe
musees
temperatures
disponibles
chargee
08
##aris
##18
147
##tences
##imard
redaction
gares
golfe
spatial
tramway
parallelement
##ee
##irie
sest
##17
##hiop
registre
##ortes
proprietaires
vladimir
##ground
sao
sid
virginie
emble
',
banlieue
enterre
remplacement
grat
deviennent
##mal
quarante
aval
renommee
moun
republicain
jeff
pakistan
signes
pad
dote
lomb
maintenir
imper
consacree
bate
couvre
preface
intention
alter
colonne
##uri
maine
coin
##cules
plage
categories
athenes
commencer
yougos
vigueur
##rano
sure
supplementaires
das
puisse
abond
baviere
discus
figures
dirigeant
competences
encyclope
attendre
wilson
attaquant
puits
bourgeois
1878
virus
denon
ivoire
##atine
empecher
##non
philadel
plaque
ax
corne
gord
##enberg
ecossais
gang
##ylvanie
maitres
##mberg
hypothese
gallimard
introduit
##uir
civils
representations
envoie
della
verite
##iano
##liquant
employes
recevoir
jardins
boxe
transformation
machines
automatique
##ovo
didier
avantage
effectuer
decouvrir
agre
suspend
denonce
visible
donnent
1881
anter
positions
fermet
fos
jume
auvergne
##oges
hur
remis
##ologues
apparaissent
magist
1882
conseils
corn
applications
multipl
empris
1876
harris
##entee
##fications
fox
ethiop
poll
successeur
##organ
deviendra
boite
accueillir
comics
foi
mens
conquete
icon
universites
fournit
##linois
kenne
campagnes
fruits
clement
tox
..
musulmans
italiens
laissant
defendre
faibles
verre
passagers
sable
antiquite
wer
1867
##kow
hc
roll
meilleures
mir
dak
##kel
interview
theat
kevin
destinee
kg
pekin
##gel
1887
1884
particuliere
chass
fasc
nes
acide
rib
##oko
adversaire
##rants
archeologique
##cf
propag
avignon
buff
financement
financiere
troupe
clan
incorp
danois
##cope
fortune
independante
illinois
lausanne
echecs
anniversaire
##orie
august
##ilton
encadre
espoirs
climatique
bient
ut
box
##culaire
##rov
lub
douce
sarah
bientot
echanges
##ismes
municipalites
##iences
xvii
guitariste
tenir
inscrits
surnom
reconnait
galaxie
breton
fay
sensible
importe
construits
##bri
desert
situees
extremite
corine
specialise
soutenu
johnny
soutenir
##raux
rivieres
pluvi
jet
sas
andrew
##cice
ecou
oceanique
anvers
varsovie
qualification
environs
##14
frais
martine
monts
davis
meridi
friedrich
hamb
petrole
road
hart
fosse
##amed
catast
islamique
amitie
visage
moselle
outils
pair
lem
remporter
racing
personnelle
confront
froid
clau
##13
prel
##tible
seigneurs
##ista
poursuivre
destination
conserver
johann
hect
rej
sop
profil
##teresse
redige
pure
quator
morceaux
##tiss
institute
moz
procedure
windows
elizabeth
ler
1850
##ussee
humaines
##fon
nad
redac
refugies
##lli
troubles
domine
##house
belles
municipale
kle
140
wild
souter
hollande
sap
##uck
allemandes
sib
prefere
leopold
home
jenn
chantier
satellite
marais
distinction
chronologie
loup
pourraient
terrains
emet
##anth
rattache
hot
profond
##mise
evangel
oub
cinquante
garcon
efficace
##acts
surveillance
cum
gy
##of
champagne
metier
fournir
devenant
dog
accid
repand
##erre
meteorologique
kent
possession
ero
biophysique
renforce
longs
combatt
##mou
mong
mariee
##ij
municipales
offensive
stef
##ink
repondre
laz
signific
##ases
juridique
montrer
caracteristique
piet
ouvriers
##hai
vign
caracteres
dediee
stars
reconstruction
vapeur
gand
auxquel
eveques
theres
1883
soldat
determine
##sives
collabore
longues
zero
moines
garcia
neut
instruction
vestiges
brook
##cil
signature
franz
pianiste
reduction
cousin
recipiend
hollywood
choisit
├─
##bul
fera
commandeur
##matiques
escad
peintres
juniors
##opteres
##osex
vet
dick
here
africains
clc
technologies
epide
inspecteur
##ound
legiti
pai
extrait
souverain
ateliers
parv
couche
fermeture
peninsule
##rum
contraint
bonn
express
nba
circon
pretend
cible
jor
triang
dessinateur
basque
cog
etrangere
##zan
tonnes
artisan
surnomme
remise
disques
##adi
##una
communique
orne
berger
volcan
compilation
adolesc
beck
hamilton
fetes
augmenter
impossible
lau
constructeur
bruns
##hy
dizaine
desservie
##veur
treize
1875
orientation
future
parent
##erique
bog
reliant
media
wilhel
arreter
##urgie
collec
dynam
traversee
neige
lancee
ance
autel
producteurs
##pier
quai
##vit
##iration
##more
vicom
apost
equivalent
petersbourg
littor
autorise
vivent
ultra
discipline
navigation
efforts
logement
procureur
muet
arane
##olphe
field
suicide
leo
pertes
neveu
##venu
culturelles
girl
brest
poisson
##other
orientales
archipel
##lines
expans
mener
##ilien
tempe
eth
individuel
western
##nik
rache
##glas
demander
libres
entertain
pictures
minute
participent
##sten
##omen
prevue
aquit
arriver
enseignant
cole
seigneurie
croatie
1793
##teau
##gny
1789
representer
humanite
dall
perou
specialisee
generales
penns
##ghan
difficulte
##anny
over
indig
exc
##these
hyper
##ness
pande
1879
symbol
turc
poster
commencent
.).
augustin
story
nou
export
pist
syd
brou
rond
trip
immeuble
gymn
dark
championship
communautaire
110
pseudonyme
##rance
##aique
leonard
##ignan
##athan
dizaines
diego
##iga
kol
bris
voisins
chasseurs
precisement
rentre
##had
##inette
##ache
##oke
memorial
kre
146
nas
colline
medical
debarque
reserves
concurrence
##yt
##ctrice
graves
biel
bec
francophone
micros
##mus
herald
##work
zurich
##owa
amaz
##cides
##station
sis
exercice
absor
mettent
rythme
realises
christine
##zel
repose
chimie
dialogue
##oro
##alo
confederation
##forme
##mene
appareils
##veux
mast
sauver
##vey
amie
1877
suivent
dh
##guer
libert
1865
determiner
monop
ecrivains
urgence
##quiert
bureaux
veuve
portail
challen
organiser
explor
rame
heber
formations
##attan
1840
127
##iciens
handball
montant
ennemis
pod
ecart
neuv
entertainment
architectur
sic
palestin
passes
debit
##ns
versant
localites
##gt
gaston
filiale
retabl
##gner
ombre
matches
light
##lique
howard
sky
harmon
camille
courts
manoir
espagnols
extremement
voyages
quarts
policiers
mohamed
associes
designation
historiens
bry
commerciale
country
restaurant
##ual
voisin
pend
##uen
monaco
divisions
state
directrice
visiteurs
##erer
secteurs
enti
sprint
bit
deplac
recipiendaire
penet
paroissi
##rest
assassinat
facil
put
ade
##idite
duches
puy
douglas
dai
bgc
1872
percus
observation
##ming
fouilles
adri
past
##agen
pistes
expansion
seules
colonnes
aspects
introd
surprise
bgcolor
attire
yam
cens
##fond
talent
##reb
medecins
chirurg
surmon
envah
condu
partout
loy
1861
tat
ode
doct
separation
lait
##onnees
##enh
sty
depot
##tica
nag
alcool
support
91
##acion
file
1874
ascen
commandes
nan
bains
1864
width
1863
camps
francesco
ix
doy
tirs
consist
modifie
dispositif
##eron
interieure
##ansas
run
correspondance
alt
apprentiss
equilibre
pasteur
vass
care
kay
##four
##dad
spatiale
##kina
1873
repertoire
tin
lacs
occuper
khan
tache
forteresse
traditionnel
dream
lucien
subit
magnitude
abrit
capac
electro
fenetres
vague
carbone
donna
portraits
1868
##qua
etang
##akes
tenter
partiellement
ronde
compare
forum
modi
edu
finlandais
manifestation
reelu
systematique
infir
suppri
##opp
dimensions
accessible
erreur
largeur
lanceur
miller
puissant
gothique
triom
annule
turin
charente
##urrection
greve
##bro
clients
bateaux
quan
##kar
##sibil
bart
stal
testa
instant
##agi
academ
recours
charlie
wo
##techn
hebdomadaire
cede
kit
##veau
examen
##ueux
1862
##oshi
delegation
brass
chaines
verts
rejoign
##ett
heritier
thor
rendez
financier
##ogo
solaire
mathematicien
trent
minimum
franchise
low
opus
##iales
addition
##enos
pne
maillot
referend
annexe
motor
mcc
credite
morceau
suivie
##vette
echoue
ours
suffrages
hubert
osc
##chage
prieure
parisien
territoriale
autonomie
linguistique
uns
montrent
simples
tribu
duquel
electeurs
##right
renv
wa
caen
song
bros
##urus
arres
causes
juif
barbara
sydney
thail
pontif
##airement
##gro
jay
vege
litteraires
echapper
provinci
juges
tenant
sauvage
##ush
acier
therm
##holm
epoux
dominic
moindre
##utt
hydra
fuse
vaud
etages
roues
##ivement
horiz
amoureux
promet
oui
theologie
occidental
organismes
##lyn
##nan
conflits
sz
sult
deplacement
centaine
mathieu
citer
under
##board
trio
##box
accords
dc
##nay
temoi
programmation
prehist
venezuela
constate
##tiner
orbit
##book
grotte
148
steven
femelle
placee
rebelles
alpin
spectateurs
##siers
reputation
ful
##fices
##imite
xviiie
ya
exige
136
##bury
universelle
intervient
rain
neerlandaise
cites
madagas
listes
dijon
1815
##ocation
1869
your
##inae
anderson
lincol
empeche
acquisition
kor
manifeste
explorer
lincoln
pandemie
anarch
columbia
rever
monter
helic
chercher
credit
abatt
elue
recomm
charte
semblent
regroupant
trump
jersey
honore
##sia
fix
fantastique
endomm
],
basilique
vietnam
##gers
colonies
alphonse
##ancer
orthodoxe
desir
photographies
sentiment
renomme
gustave
frequence
rendent
robin
terrestre
brunswick
quotidienne
madagascar
apprentissage
armand
verif
800
hi
##uites
minor
rencontrer
repute
##quemment
ster
ruines
rach
individu
rupture
fuite
musiques
queue
associee
homosex
incarne
chom
perspective
maintien
##bar
battant
insta
lon
achat
power
favorable
coreen
connues
kin
inond
aquitaine
maximale
##heur
protoc
creuse
expliquer
bach
lip
##oa
payer
bonnes
##aigne
investisse
academy
##lit
##gger
dechets
uru
beat
jouent
interromp
isa
christopher
vingtaine
mous
##zaine
1790
chab
##ffer
paysages
arsen
jouant
pedro
just
maritimes
relative
experiences
jung
penser
township
majeures
global
morgan
seize
##aissant
##ophone
##chard
prede
tf
suppose
innoc
philadelphie
remont
afghan
well
reform
##vic
##anca
decrite
evoluant
asp
##lag
chor
iron
admis
details
##cue
fondateurs
imperial
##osite
experts
electriques
boliv
charbon
137
coi
renseignee
massacre
miro
shin
polem
sale
opinion
##icat
parcour
"»
##umi
imposer
chaussee
assassine
##ouk
denomination
valence
diale
viii
acceder
bulgar
retard
##ibilite
sum
successivement
recou
pouvaient
vacances
correspondent
pavillon
attaquer
verd
jonathan
eman
##eni
afro
degre
repartis
145
presses
##hui
grecs
##omon
baroque
prusse
costa
secrets
avons
picard
spectacles
electoral
rais
wilhelm
formant
partielle
conforme
prime
presidents
installee
times
capacites
venu
aube
##onner
##guay
##ramme
administrateur
pharmac
great
bulg
calv
camar
##antine
remet
abe
pennsylvanie
diagn
exclusivement
militants
##oye
marion
128
down
##hall
sovietiques
porto
option
bond
obligatoire
##ataire
sho
colspan
decoration
system
narra
mauvaise
##lies
##istiques
dech
##rob
surviv
soixante
gordon
entame
##occu
##issa
ais
decennies
referendum
aeron
familiale
profite
inclus
constell
integration
crimes
luci
##fo
giuse
boc
prolong
pare
129
##wald
134
brad
126
trait
crete
corruption
600
marbre
pall
administrativement
sexe
##vill
##worth
domination
demenage
abra
amiens
voulait
##ancon
garn
tetes
provient
voient
oran
silence
nominations
adultes
recouver
fabri
mineur
composes
republicains
itiner
touristique
miche
wis
wel
sanctuaire
neuvieme
marx
117
specifiques
dead
saur
renault
bruce
subdi
culturels
jal
reedition
thr
videos
##uations
mythologie
##user
logique
reservoir
gonz
##omiques
gour
gaul
##wen
malheure
humor
independants
ascension
##aze
##olais
elimine
decouvertes
##nait
pred
aub
##ml
cuba
approxim
voile
johannes
prochain
frequemment
":
vins
135
departementales
faites
canadiens
partenariat
##oslo
##dres
echappe
implante
telephone
geant
perdre
invites
nigeria
doubl
decerne
encourage
reformes
collecte
taiwan
seance
esthe
testament
tension
astronome
decomp
devaient
angers
ober
ora
xiv
emporte
fermee
pertur
contribution
##zac
##charge
reconstr
path
natale
("
##cts
marco
##uteurs
vetements
durable
retrouvent
evaluation
bacter
consequent
##illo
##uro
tunnel
ecologie
##oste
ibn
facteur
alexis
eponyme
1000
partenaire
")
clark
sti
giuseppe
interac
conflu
disparue
vegetation
tob
hat
noc
138
##avie
1859
combattants
amateurs
implant
##ele
pourra
numeros
griff
constantinople
redacteur
paras
demographique
presti
tas
decident
remarquables
recits
beaute
esclaves
morph
facteurs
gay
satisf
enorme
raph
breve
manip
parametres
pauvres
hitler
##ignes
nourriture
heterogenes
ov
obtenus
raff
desire
insectes
250
prem
diagnos
##olith
byzantin
ouvrir
##siere
benedic
execute
oxy
burkina
##uees
soumis
reunit
defaites
remarquable
beach
stanley
dome
infrastructures
foss
soudan
bons
congregation
sugg
etroite
clem
gn
##astes
archeologie
espion
##aph
##ardi
##vais
##ester
officiels
bulgarie
vag
##tins
sucre
tod
cents
retourner
##querir
(-
caledon
##yne
##tibles
metrages
habitant
santi
mondiaux
criteres
genealog
traditions
formee
vicomte
commerciales
possibles
ports
conclu
dut
plur
promou
##hon
space
billy
louvre
tchec
rw
herve
arrivent
onu
graveur
mout
metiers
pluviometrie
amende
allie
annuel
parisienne
vols
eure
##maine
periodes
##orf
retirer
biais
tchecoslo
jimmy
heraldique
nec
entreprene
climatiques
voisine
exig
enregist
amerind
tag
medievale
jere
albe
##mbour
1855
attentat
paulo
poche
##gate
119
allen
optim
rattachee
##chette
old
potentiel
research
##rah
autorisation
d2
##fre
illustrations
antenne
map
mak
sommes
sultan
chateaux
##urch
therese
fic
pent
139
petrol
masque
clot
mys
142
##moin
##usions
##eses
blin
indes
rc
biologie
rick
132
broad
prononciation
normes
##ondu
##ilde
dits
synthe
manœu
1800
publicite
##onna
enje
##rienne
mexico
constitu
volontaires
adj
varietes
atter
##rys
##andro
patrou
nint
souvenirs
allait
who
meg
--
flo
##yon
combine
jugement
tournois
##rag
psychi
periph
##lation
stone
##cient
zen
playstation
prussi
plateforme
connaissances
lambert
##diques
rarement
corporation
flux
algerien
sv
heav
usa
##andais
imprime
edmond
detruite
supplementaire
roches
rect
belges
sai
reus
manchester
veter
lake
vik
bourbon
servant
##olition
arables
defen
virt
recons
hectares
##garde
statistique
kap
descente
aragon
chang
animateur
##doise
##optere
work
moine
##ormee
moham
refuge
##quait
##elli
partenaires
122
temoin
ud
jai
##ichy
affront
quatorze
bbc
magdal
##kan
dri
alp
catalogne
ajouter
aient
passent
boris
prolonge
dab
aerien
cuivre
norme
synthese
##aisser
sncf
hameaux
first
ua
europ
cla
definit
1854
posterite
solide
demissionne
reproduction
militant
##imente
124
##icaux
ard
strategique
personnels
intelligence
acceler
colere
gram
genetique
investissement
azerb
devoir
##eneuve
##tele
##niste
comtesse
cinematographique
dict
bleue
dramatur
sauv
1857
precision
quer
##uille
vendus
fine
115
navale
romancier
##pal
##apest
assaut
144
dres
##cho
signale
##rations
shang
medaillee
kou
naval
budapest
1858
jette
entendre
##iron
illeg
fini
episcop
optique
##odz
motifs
gru
atmosphere
##aidjan
rencontrent
##humee
possedent
accueilli
##anement
##abet
recep
speciales
prisonnier
ae
1851
createur
##stal
presentees
constructions
andrea
nintendo
philippines
##gnes
nai
##nais
ligues
##urte
##tise
##ips
insuff
##arthe
gouvern
constellation
ferr
clairement
coupes
indonesie
diplomate
developpee
##ctee
prives
missouri
##ku
##cra
1833
renforcer
poit
faso
certifie
efficacite
tourner
buenos
candidature
##arme
inclut
states
contemporains
kas
##isa
1856
manuf
##ocy
sed
matt
clandes
##mbert
coh
differente
travaillent
particuliers
oriental
ordinateur
accum
flandre
##venue
tempete
##agh
##stadt
suggere
inscrite
azerbaidjan
earth
theodore
##chy
##tico
rebell
notables
##dule
norvegien
interdiction
torp
reflexion
telescope
beth
alimentaire
chaleur
##cade
lg
vede
detail
foule
paradis
uruguay
##iew
##illac
otto
embouch
violences
-)
coequi
1792
chœurs
vende
tarn
inhumee
taches
##merie
1814
inconnue
1852
explosion
branches
crees
loisirs
magasin
arnaud
frit
litteralement
##lore
##raf
plonge
circonscriptions
##lain
sond
monarchie
consideres
assie
109
vid
subi
hip
bielor
mineurs
debats
bible
suffisamment
participant
rallye
##isement
signifiant
##entement
appartenait
interf
compren
background
financiers
women
##ouge
quebe
communications
rassemblement
##phel
resol
romantique
clav
mamm
debar
disparait
figur
##iler
preparer
nort
143
laff
123
difficiles
##coise
##cas
estimee
chore
##mund
suites
incluant
jordan
diversite
tene
promouvoir
##itat
perce
comique
hugues
##gies
inspiration
representee
comportent
##chan
affronter
evidence
domm
sup
##cut
##rone
gig
##roid
agran
chimique
##orique
reorgan
##uset
quebecoise
basses
enrich
preoccu
masculine
remplacee
##inton
vamp
trompe
violonce
blessure
leip
##mestre
satur
revision
voici
cors
nationalite
get
##alogues
existent
financieres
embouchure
##tet
'.
christianisme
provenance
kw
118
bouche
gras
utilisateurs
death
revues
modifications
restaur
ryan
sard
alent
marchandises
reconnue
dave
##alth
valenc
##inatoires
##aisie
geologie
ballet
integrer
##ouille
manne
hausse
cosm
stop
nœ
fidele
seminaire
##odrome
dynamique
synd
sculptures
##amo
reed
##oba
paysans
circonst
fideles
simult
toulon
##alles
communistes
tardi
apparence
perfe
compagnon
scot
fiat
ong
jos
##cz
campus
##urite
##ralite
##champ
##ross
105
viande
garder
-,
egard
medicale
##kk
incap
##yll
conclut
pension
##cord
##diver
miami
epee
case
sier
parcs
garcons
fins
eme
manuscrits
set
plomb
1849
bolog
publier
##mbles
hin
marian
patients
turb
notice
##ior
suspen
baz
##oka
naissances
ingenieurs
##ciere
news
raoul
soll
tests
ms
fans
ern
escalier
##mper
priv
decisions
solutions
plai
133
lutter
##enie
##antaine
epaisse
agee
##rerie
pluie
sombre
chomage
##ako
fantasy
miguel
elevait
males
hambourg
ring
##omorphes
vigne
liquide
categorisee
identifie
ier
voute
destines
##oivent
massach
##oft
librairie
amelioration
belgrade
echan
choisir
##astre
recut
michigan
gramm
##lla
progress
agir
monet
##fc
sicile
mann
deroulement
predeces
tirer
fruit
##arin
commis
nombres
##conne
coron
##alistes
brill
##ogle
##ados
accepter
permettra
dieux
reduite
cellule
gamb
dil
##ineux
spi
reje
bann
agissait
##ifa
chambres
##aba
jason
model
##oku
1846
dord
##ogique
##ener
##usetts
realisees
panneaux
112
berne
leipzig
massachusetts
116
protegee
tchad
generique
rhen
sections
ohio
forts
resistant
algor
aeronau
##aders
matieres
malade
decore
psychologie
theore
gallery
commemor
##raille
alban
continu
##cis
traites
that
indienne
fire
infirmier
106
bombard
prochaine
##dt
usines
##ataires
variable
morris
nœud
##mn
##omy
mourut
chercheur
orbitales
sf
##analy
perpet
taxon
compet
##tint
landes
eclate
reno
couvert
galaxies
diminution
##ding
##phal
emil
##iaires
demont
square
limoges
loir
abraham
yu
noyau
flot
adel
vents
lourde
meuse
##athe
radical
actuels
eliminatoires
dragons
algorith
##gard
mysterie
cc
scri
precedents
vues
figurent
serre
supporter
##oche
besancon
baptise
divis
##cile
nommes
##dou
chel
interv
##aumes
zh
##burgh
ottom
##tal
littoral
commentaires
bah
choregraph
moto
lepid
pouss
##acte
camera
dance
remix
##lio
kelly
##kes
ian
yout
battre
yann
bic
##zona
mb
informe
##fran
chene
##aritions
##inaires
justin
sut
franche
boe
##xt
##atar
incident
immun
##osp
funer
amont
macron
fib
##rence
complexes
##athlon
fermes
apprecie
descendants
yan
gaulle
##orum
consulte
two
lus
mourir
calculer
plon
privees
nelson
isere
adulte
grosses
gardes
superieures
##diversite
proposer
adversaires
assistance
matthe
gallo
edifices
cadet
foyer
dresse
moore
effondre
matth
##uteur
demontre
burg
zi
facile
##oudre
107
statues
##ated
##aker
##uste
expul
##mid
opposant
barry
veulent
##ey
arbit
prosper
scorp
tah
industriels
##back
sara
##mination
##kers
ridge
linear
initiale
##irus
rural
google
chamber
tribus
bm
eclai
botanique
germanique
##ench
trin
fati
duchesse
102
morale
agnes
hend
coureurs
horreur
##here
suscep
##oum
accompagn
vocation
warner
dore
herbert
hach
depression
jin
issues
controverse
otta
##rehen
pretres
114
lyce
raphael
##lavie
kai
youtube
bonheur
lucas
combattre
temoigne
apporter
113
japan
rangers
biodiversite
democrates
dies
majoritairement
rn
autobi
franck
francfort
theolog
lope
##atsu
stockholm
rech
albedo
was
beton
raj
continental
energe
pire
actualite
yougoslavie
longe
1853
##isembl
ballon
emplois
ump
recuperer
##zes
qualifications
similaires
obsc
traductions
##olle
1837
dramaturge
convoi
salaries
ouvrier
biographique
lourdes
suppression
pourvoir
professeurs
hels
tournant
terri
swe
extraord
audience
scandale
endroits
toi
gouvernements
civilisation
ulter
villeneuve
##quette
sad
centrales
russell
couvrant
saou
coloniale
mack
conce
boss
differences
interroge
##last
acquiert
voulu
##vez
##chim
pirates
apparaitre
permanente
feux
arizona
phases
eurovision
posterie
embar
##phone
ole
challenge
1845
habituellement
geomet
feat
possedait
##bant
barbe
##ring
management
reconnaitre
foc
cologne
##ifer
precedemment
##odge
whit
herite
etendue
messe
grosse
votre
bug
ecurie
queen
influences
horm
scar
laura
nicole
hond
##adou
nobel
rachete
rangs
graphique
publiees
church
##bal
recom
froide
esclav
last
nova
roth
poitiers
michele
alberto
aristocra
concerto
##anga
reelle
quentin
##ouf
##tilles
##itter
##andez
##cala
variante
attitude
unesco
gray
##owski
##heme
fernando
ely
boulogne
garan
oe
atlas
ordonnance
vainqueurs
nig
##nellement
lad
ration
ultime
oliver
australienne
conservee
ein
bank
##icales
fusionne
conjo
complements
colorado
baud
##enser
detaille
##titudes
autoch
abandonner
##bourne
moon
bresilienne
1847
plume
industries
##hesion
joint
elimination
ip
reside
survey
assim
##omi
heinrich
depe
fleche
andy
evi
punk
client
dy
##ruck
##stac
constante
reh
urbanisees
cahiers
infrar
croit
1831
##ogan
tomber
trouble
devoile
suscite
ion
1801
wars
remarquer
?,
courants
souris
emma
orchestra
cultive
hann
##teries
minnes
offrir
adoption
##apie
milliard
alternative
architectes
##dale
conj
cardia
ng
archeologiques
variantes
districts
cheveux
##vies
precedentes
assurance
tf1
ht
remportant
maconn
mono
valentin
rebellion
carter
renovation
immense
##orta
cyrill
tombes
##day
##uv
gregoire
consol
flamand
##yen
essence
dispositions
cac
travaillant
magdalena
menaces
velo
racine
venue
##oda
##sid
vosges
##stone
mitch
abri
courage
bap
atlant
ted
singul
agen
copie
licenc
gary
bonap
chroniques
havre
##ello
bid
decennie
##ław
quatu
incert
recommand
inhume
fug
recueill
##ublin
soprano
rip
regionaux
rempl
commenca
vib
controler
tribune
1791
riz
##aa
common
##dl
lass
index
afghanistan
popularite
dissolution
reactions
transporte
##stan
card
inver
artistiques
blanches
temoins
initial
tentatives
journees
approvision
combus
fief
##uisit
repression
minnesota
installes
##ativite
##isations
rebapti
enquetes
renon
sound
incomp
1839
lisbonne
constituer
ludwig
colin
##amine
nant
santiago
racines
##ights
jura
temoignage
blessures
pisc
##doine
##yth
lt
##iferes
##ignons
planet
roux
##wart
lublin
autrichienne
##ocier
vouloir
##rong
vertu
##ifique
detruire
traditionnellement
globe
endommage
games
spin
routier
clinique
neuve
tamp
thriller
chimiques
1842
speciaux
silver
##inent
config
prevention
ced
compositions
obstac
envoyer
catholic
livret
sorbonne
sportifs
104
recup
oriente
severe
##aie
noires
##chin
eche
##ticien
##bell
lourds
arrange
epau
occupee
schema
quasiment
##aku
motif
##enny
spring
iowa
mazovie
fernand
##arie
##haw
transpar
croire
abus
taxe
decorations
halle
het
egyptien
##ixe
prud
1834
##gnee
diminue
luther
dixieme
alphabet
##oya
1843
porn
oz
circulaire
imprimerie
bam
##taire
tensions
souveraine
probable
cyrillique
doctrine
gt
103
##rog
egal
1832
##atrices
##vide
positif
cic
1844
##iness
##pool
parlementaires
rume
arrestation
wy
vraisembl
##abi
rey
diplomatique
manifestants
##asso
##iane
preal
daw
avocats
depass
pente
restera
##ouin
##doc
temoignages
##roc
ferre
atteste
sequence
##bt
##aments
https
pyramide
moulins
##unt
defaut
exploration
emmen
boute
medieval
fonctionnaires
aujourdhui
divorce
##rais
concile
##oises
rie
arbitre
modification
anjou
atlanta
iris
hermann
rectang
pia
dac
traits
charp
jerry
##gang
roumain
rentrer
concession
visibles
marquer
1835
patrice
frib
socialistes
108
trentaine
engager
venge
break
aid
qualifies
preuves
renaud
grant
œufs
remplacant
psychanaly
azur
1841
fonctionne
syndicats
musicales
kiev
##tera
exploite
##liga
amphib
continuent
queens
salvador
exces
colons
##diens
passee
profondement
syndrome
##enstein
adolphe
eteint
turque
suedoise
see
xviie
recettes
eru
infrarouge
vallees
fair
buteur
horizont
verse
ahmed
##otique
marvel
extraits
ernst
lant
posth
stein
lions
eleg
suspension
acheter
session
1836
phrase
joel
flanc
originales
esthetique
##cence
specialistes
invente
bundes
concentre
##abilites
apparitions
marchands
propositions
chyp
supprime
isaac
##icz
paroisses
rela
pratiquement
clerge
##pees
magasins
garnison
luigi
rs
1838
##ware
inauguration
lopez
pren
definie
subsist
acous
interim
diriger
heart
dob
##ovitch
yo
codes
enregistrements
caisse
modeste
auss
individuelles
##cif
tril
operateur
comprennent
##lees
restant
##athon
##aitement
hisp
marines
progression
indice
fenetre
##tide
anonyme
paraly
natal
integree
lawrence
poin
##neau
elarg
##itaux
uci
stri
##hara
organisees
biologique
nimes
apostolique
gratuite
##hs
courbe
lec
1794
pab
now
##oui
depit
baisser
flute
ivoi
lamp
##bot
##rette
##vaque
principaute
##itis
alias
##celle
quint
equateur
echo
lignee
chrom
gloire
ordinaire
construites
redu
##sy
inac
##yron
maternelle
sarko
soph
benin
##dique
sak
aveug
collaborateur
utile
##dites
##ouc
festivals
remettre
rives
attente
aisne
tamb
joy
##aill
tall
traditionnels
penal
stud
arabie
realisations
generations
##dle
rayon
gerer
slovaquie
indiens
##ophile
##oney
organises
##oge
saga
##forts
shaw
trah
stuart
cles
impliquant
catastrophe
robe
##sky
##urb
##erant
lombard
spar
televisees
##wich
##onso
##zin
apple
vanc
soulign
genere
centi
administratives
compatri
cnrs
planches
glas
##ogen
orch
attentats
appartement
qualites
leve
##ject
muller
couches
kings
majeurs
mandats
volant
bull
doublage
compagnons
comportant
chati
##armerie
francophones
sacrif
arretes
##vise
tirage
spider
faud
##aman
##tv
desserte
sexuelle
##sbourg
existait
##oupe
synag
arra
##iemes
myster
mecanisme
phen
wise
chancelier
particularite
pach
nettement
detention
chauffe
ottoman
entrees
mexicain
roberto
cense
comedien
commerciaux
colonisation
##uta
bd
fm
##oen
bez
##head
detour
bod
##aca
investi
margaret
crain
##otti
3d
##iliation
toy
depenses
assi
restre
norman
sarkozy
##mens
##chees
bonus
alge
indian
macedoine
discu
polytechn
vraie
emmene
boucle
solidarite
navarre
tau
books
##gou
libye
##ierie
##uch
indre
humour
range
erre
serpent
dents
taxin
satellites
arles
bombe
epar
uefa
comparaison
prototype
phyl
boys
inven
edgar
gendarmerie
passages
abdel
repeti
particules
soud
##aska
cirque
sommets
him
empar
chevaliers
prelim
fitz
##yre
sr
mee
##asie
caledonie
##onds
ferrand
dublin
diable
lith
inauguree
hebre
demarche
symbolique
siles
jak
degats
secession
theoreme
ferrari
lent
houston
mosquee
effort
confron
septent
auber
evoluer
1812
stockage
sons
łodz
singap
llo
hym
bamb
immigration
septentri
autrement
menees
##olas
apprendre
kurt
atteinte
dordogne
##inki
engagee
##encer
confession
aar
remportent
normal
rotation
##nois
comprenait
thailande
aper
alentours
##olithique
effectivement
richesse
julia
reellement
iz
##nat
universel
allier
trage
reedite
##zzi
##tivites
lisa
##ithe
limiter
lever
baby
##inthe
dign
##dile
traducteur
##tha
symphonie
kansas
aligne
ace
lil
industrielles
digital
inscriptions
rowspan
egale
malte
reag
ameliore
ic
vand
ecar
adoptee
bulgare
sociologie
##ische
circonstances
approuve
alerte
shakes
##wal
##rose
considerablement
kennedy
##chez
incline
raid
##hail
rabbin
##adier
##assan
qualifier
levy
parker
nucleaires
caire
agricul
onde
cadres
convers
garanti
cie
creant
disant
brise
suzanne
##aj
noctur
vendee
ample
paroissiale
adrien
faciliter
exterieure
recente
entrainer
letat
##gart
individuelle
eh
intra
avere
banques
##esp
derives
vati
rp
eloigne
##tto
hawai
vive
collective
child
wu
hers
adher
legale
##yan
miles
rocher
##tines
chants
theories
ana
concre
joan
terminer
vancouver
dex
tournees
encyclopedie
divisee
sd
shanghai
completee
##vens
##enay
simone
instar
shakespe
##uto
!,
mobilier
effectifs
his
ondes
batailles
mats
##lat
clavier
##uries
marocain
rez
plaques
##lay
meridionale
regi
##lage
romane
vichy
hero
physicien
dakar
ecclesi
reliefs
plaisir
deroulent
distribue
fly
##borg
ottawa
##imee
bille
##kat
renseignement
missiles
divin
dot
fantome
ethiopie
helsinki
eis
embarque
selectionneur
armenie
epic
grim
era
##ilee
scolaires
enth
##asp
affai
personnelles
drogue
##gique
dette
marge
avancee
batteur
bruit
orn
orphel
synonyme
...)
##rue
gabon
israelien
##zzo
flash
##icielle
plaf
wide
##yste
tong
roses
thib
distinguer
##cast
audi
corte
marshall
priere
citoyen
invention
##ika
gav
##lou
subdivision
##itot
parach
##var
grandi
##under
conten
this
restaure
bed
accede
senateurs
##bee
blog
nin
hongroise
castille
species
culmin
opport
juridiction
venait
aute
##dire
dangereux
convaincre
gira
estonie
##ision
styl
precede
bologne
flui
honneurs
1810
daut
escri
turcs
harvard
recupere
quatuor
abrevi
tube
couts
lyonnais
universal
lionel
family
##inski
tric
anges
permanent
considerable
consacrer
fusil
sebastian
gironde
calme
merve
walt
baker
discussions
chantiers
primaires
boheme
observer
polemique
golf
pig
exprimes
revendique
definir
traditionnelles
rodrigue
rosa
ecoute
andal
remportee
arnold
gres
caf
1795
terminant
nev
##lite
##urrent
access
##orel
##mites
##pte
sauvet
reclam
brievement
##ignac
auxquels
phill
adn
neb
gob
poetes
vertical
exh
kath
baccala
inhab
detective
##ories
└─
parfaitement
collectivites
bonaparte
vatican
masters
reunis
protocole
janeiro
aigle
kom
jess
##regul
propagande
chelem
gale
bleus
louvain
baccalaure
iso
engages
##quille
cerveau
moliere
vacc
approp
voter
dommages
##ulu
insurrection
##urier
suisses
collines
aude
prophe
##oniques
franklin
##aiser
pt
wang
enchaine
alpha
triomphe
stric
logiciels
transformer
moments
hote
admi
ideal
paolo
abords
descendant
natation
arsenal
nathan
##ender
##nia
##lov
roule
##em
aeronautique
claviers
litu
oubl
##unes
fid
fonctionnaire
##oient
method
leaders
larges
chars
identifier
alto
borne
rapides
malades
kill
rfi
retenu
renonce
stefan
aussitot
##jar
insuffis
sympt
##kine
chaire
concue
berry
constitutionnel
remonter
reme
harm
party
##vieve
arde
entendu
emis
platine
servent
partant
phenomenes
exercer
palestine
##amer
1825
botaniste
nak
mec
##cheres
irregul
genevieve
officielles
affect
liver
oblast
tendances
annales
shakespeare
##inium
##atrie
fed
indisp
##los
surre
armement
atten
promen
ark
1806
archi
immobil
##vice
hem
promo
metropolitaine
##isch
##onal
robinson
parfait
devra
dei
anneau
lori
adaptee
epidemie
kad
verlag
valerie
raw
annie
nathal
essor
##itres
##onnant
occidentaux
norveg
##xi
originaires
sanitaire
handic
innovation
##aur
extraction
##lot
decroche
malheureusement
sympath
desin
reyn
femelles
jumel
tentent
uc
##auche
attendant
patient
##enda
##iet
##ulus
hud
racc
essaye
gerald
##ffrey
namur
##beau
mystere
##ums
envoyes
recolte
sergent
.",
sorties
realisatrice
ensembles
##ов
finir
##tar
humides
##gui
pollution
professionnelles
rapproche
apoc
zag
##oua
quete
pietro
albin
volontaire
thermique
defic
documentation
vincen
disper
fribourg
paraitre
1824
cardiaque
##asi
hamp
irlandaise
##down
nez
indiana
chapite
stim
auxili
carai
##bol
recommande
preserver
kate
affluents
baccalaureat
haye
sportives
pauvrete
capt
haiti
##peaux
pomer
nathalie
valor
affrontent
vedette
silesie
eva
rendant
##hor
antise
walker
occupant
##uette
signer
specialement
insi
esclavage
lituanie
utilisateur
gior
classees
movie
incid
fiscalite
devenus
##isseur
apparu
hopitaux
pastor
classic
##lands
escrime
inje
kris
##bra
##aval
mineure
exactement
mainten
amor
trajet
tad
detient
reussite
dah
croitre
couramment
gan
innov
fragments
impulsion
dauphin
secrete
##ffic
vif
##ousi
lach
copenh
chrys
collegi
communs
foy
##kir
bh
##cker
discri
##gow
##roi
chiens
##boy
lumieres
epousa
pelerinage
integrale
enseignants
'''
propul
1828
cruz
project
jup
gagnant
##ift
##inement
##dant
respecter
modifier
##iges
ineg
##mitri
obligation
cook
manager
conduire
palatin
resoudre
logo
gul
##niers
##hoven
##alom
##ppes
matthew
##vue
imaginaire
cig
##amen
identification
##ographes
illustrateur
(?
lez
rhenanie
ll
exprimer
##aza
contrats
occupent
tunisien
maxime
alum
##ancourt
hex
disputer
legislation
##usz
##tah
##liquent
quelqu
instance
detenus
##oton
lecteur
opere
##owe
cape
emploie
metteur
business
delta
recoivent
700
##abre
circuits
pate
favoriser
##sea
##hin
sall
puissances
constant
panama
##orre
dallas
espere
##cat
dependant
symet
este
fn
##asions
puissante
eleph
wik
maitresse
letton
##uman
##ward
##hof
feministe
stage
reconstit
entreprend
1827
piege
perdue
republicaine
appelees
adolf
##lers
legendes
carp
##etti
what
prele
##onnier
civiles
||||
revelation
sonore
bailli
glen
tul
loren
parviennent
religions
hesse
vs
##vio
##stration
##entier
menac
unan
passa
##veland
situations
debout
hydrographie
ded
occitanie
immeubles
reportage
##tistes
sauvages
produisent
xvie
traiter
royaumes
ukrainien
##icus
pompe
decoupage
continentale
assuree
irre
eventuellement
protagon
##rante
rival
1829
##bere
opportun
diesel
inspiree
forest
singapour
##mba
aigu
lecl
neil
kr
chou
chlor
##ppi
collegues
##arz
mante
bain
campbell
##rix
athletes
croate
carrefour
ponct
adams
provoquer
pam
residences
##kee
creees
peres
attribution
bowl
cai
recurr
prou
##ouleme
##orro
##icule
harvey
##chaft
graham
telecommun
stabil
nazis
familial
sea
##kt
kenya
calcaire
exploit
destinees
marathon
stewart
adres
recrute
##queline
stere
uniforme
styles
collo
##vance
cend
positive
descendance
publish
##quants
danny
merce
glu
znie
yv
cinquant
##ueuse
isol
grasse
##pus
mercure
znieff
analyses
##hausen
comprehen
wrest
##mbe
arie
saoudite
morti
serp
arden
coordination
mog
guere
barthe
hut
hotels
dauphine
materiau
montrant
placer
vaisseaux
##americ
billboard
noces
network
mers
nauf
decider
rochelle
amy
intervenir
mp
ecclesiastique
habitation
##gr
##arest
101
legislative
vq
murray
elabore
ei
##jus
competence
attribuee
commerces
sloven
marquant
suspect
##bil
desac
1826
terrestres
miroir
benef
##chs
1813
comitat
parution
thomp
julian
jouee
ralph
girls
intense
indire
faill
procl
jacqueline
sanctions
apparente
posthume
appeler
elli
conservateurs
terminee
dag
damas
complex
symboles
controver
surfaces
abel
ff
##apolis
##vol
cis
devraient
##iteur
argument
actuelles
seville
ligh
stabilite
rayonnement
fameux
rendus
courrier
cay
violoncelle
paire
##aisses
antic
nationaliste
found
##chatel
conde
##eta
aviron
gratte
##isseurs
tombeau
inex
##cale
##fle
##onder
##vik
mim
magie
editeurs
manh
investit
islande
liberaux
hms
##odon
duel
cavalier
defi
copenhague
eter
gravure
observant
##aer
vitesses
##ological
thompson
wit
jas
meyer
evans
constituant
ceremon
##velines
accusations
parue
serment
nasa
liberer
parado
lloyd
poetique
considerent
etrange
pear
##anbul
conserves
##oiries
##iani
biere
ars
delivre
talents
rodriguez
##acee
##iko
##kas
medicaments
deman
hasard
equation
obama
head
salaire
##bois
perez
1821
conformement
nut
hain
advent
inu
microsoft
causa
entrepreneur
rin
sage
snow
compati
larry
gentil
zu
pep
eddie
pelle
piemont
jen
fossiles
woman
munitions
touristes
vor
reclame
typique
cp
malaisie
coupable
heide
winter
carburant
consecutive
bie
angouleme
"»,
hybri
ice
rappeur
##otage
ressemble
##kerque
soin
recentes
fausse
amoureuse
##fin
carth
deplacer
##dorf
##ower
censure
nid
administratifs
bobby
salut
participations
territoriales
insur
##tus
demandes
requis
appuie
organe
musicaux
verb
wrestling
relegue
plainte
heavy
happ
holotype
##xions
etique
assister
forfait
araneomorphes
privilegie
century
leb
grandit
bibliotheques
investissements
thur
bade
certainement
sierra
##auts
comprise
stutt
continuite
bent
alsac
1822
economiste
##tones
##terieures
cras
proteines
1817
##akov
chemine
distances
cleveland
##esses
ressembl
eliminer
##sex
patriar
##chw
reporter
visites
ek
superieurs
synagogue
people
roque
dell
cineaste
relatif
quarantaine
survivants
definitive
bref
harold
pitts
kunst
##uru
debarquement
substit
perdent
##mouth
inventeur
quinzaine
##tino
nit
chartre
gregory
liaisons
istanbul
galeries
diversif
paiement
##yant
mythe
comptant
(+
conversion
##acees
##nell
##olia
elaboration
##othy
montene
organes
1802
##aies
arrondissements
electric
key
commentaire
lesb
auront
folie
prior
aurel
gustav
kazakh
aless
pablo
##mentation
##log
modere
mitchell
army
plaines
##attle
susp
##ames
##vert
sean
##ulant
parrain
perfection
##rera
seche
races
##ted
ride
transe
##ather
decida
osse
valley
anterieure
financer
escadron
ig
mohammed
rss
blocs
deesse
##imar
##loge
brevet
enn
wright
permettait
polytechnique
loiret
numeriques
menant
equipee
um
bush
:#
energetique
reconstruit
sony
emira
accompagnee
cv
##ichi
voisines
##tag
etres
mant
vernac
empre
geste
repechage
##isent
sedi
1816
detenu
transit
##uka
denomme
tomes
pag
logis
messages
##ancee
incont
mannequin
rayons
cloture
##dr
magic
rentree
lecteurs
##enement
beneficier
balles
deten
symphonique
multip
mitraille
faisaient
chasseur
##fried
qualifiee
decedee
affronte
pomme
guyane
grey
wiki
traverser
ds
rouss
chanter
confluence
##nisme
recent
souverainete
fonte
dites
poser
guadel
marcus
legers
sati
1808
##asses
catalan
percussions
ramene
otan
alexandrie
liverpool
laurence
semblable
aides
constitutionnelle
sentiments
gw
eurent
##islas
pack
mire
impots
extraordinaire
##nale
adopter
##tini
ampleur
##diff
meub
emotion
marina
1823
sauvetage
roue
##mane
cylindres
provincial
moyennes
##outs
##cd
contributions
rhodes
##oriale
localement
terrorisme
1819
vulner
bombardement
clos
bords
natural
stable
stuttgart
rafael
##riens
##ends
##arez
##arisation
guadeloupe
urs
dinosa
capables
camion
unter
ouverts
juliette
apol
ceramique
epaisseur
brule
esprits
phosph
chil
etal
enthousi
##vere
documentaires
combinaison
exploitations
nett
dons
corde
rag
wolfgang
##thon
approfon
dotee
armoiries
1500
did
1803
repous
dus
hoff
dautres
chypre
excep
dion
graines
portugaise
cock
ouvertes
tira
vivants
erreurs
##izieme
wayne
bielorus
cecile
incen
##insk
trinite
illustration
bebe
courtes
culminant
##coupe
lame
take
imperatrice
nuits
nr
##oso
austin
1809
paye
melbourne
appliquer
##mere
monti
hydraul
repere
hig
##ishi
contraintes
regulier
feod
baton
##uke
fuir
##anee
##anus
coton
ors
hir
forge
##zio
ingenierie
##utent
soccer
##ouer
oublie
##rod
ecarts
fortifications
disposent
##star
##istere
contreb
artisans
rim
diane
comprom
blood
sanction
remanie
##mies
disputes
##arium
pomeranie
radar
manger
##mons
immobilier
conjug
rost
massac
suspendu
##ulee
sangu
penit
algerienne
alimentaires
hebreu
avantages
entom
##bau
ecrites
europa
liga
languedoc
tante
##usa
nach
oxygene
empare
poet
diagnostic
tissu
##debourg
agres
bucarest
##ikh
intrigue
traction
portait
panneau
initie
##xie
ethique
wagner
entite
parisiens
##ousie
revolutionnaires
restri
##burn
vraisemblablement
mississi
mikhail
crane
impot
magique
##zia
giul
pique
lefe
abrege
obtint
…)
piliers
accidente
kob
condamnation
grig
module
eclaire
imposant
sofia
verne
carne
surpl
sergio
hob
disparaitre
canaux
vitraux
evidemment
compositeurs
bare
yang
possedant
1818
##chich
##olin
##cies
herault
carc
pis
##ioni
##sibilites
domestique
wurte
ephe
schmid
antiqu
provinciale
facilite
persu
dorm
naturellement
musulmane
ecu
twitter
configuration
genese
grad
celes
remy
fourni
##ands
architectural
##iels
attirer
soutenue
opposants
audiovis
sages
##itan
kosovo
clave
geoff
protestants
protestante
batman
amelior
resulte
structur
allan
panor
frederick
costume
reprod
##ilo
shad
policiere
##elin
enleve
ruine
cow
traversant
annoncee
tute
expert
##ylan
uran
gill
boucl
##cage
##onnet
repas
surs
dessert
renard
syrien
salomon
vendue
louisiane
french
participa
convoque
##ido
artificielle
##arise
jesuites
deser
three
transformee
gallois
##onia
astronomie
##amel
commonwe
phoen
representes
##gia
regiments
say
implantation
1807
remplaces
##||-
##lich
offert
imagine
##atio
mathematique
pneum
##bis
##niere
##cheur
triangle
contacts
sev
##achi
##berger
exploi
enregistree
apo
commonwealth
bip
##onen
mobilisation
coordonnees
signee
prouve
colonial
favorise
explorateur
oak
degrad
##ctivite
1804
##hire
assassin
nepal
aveyron
sentier
mozart
hunter
fromage
list
theorique
municipaux
##miers
##vois
##keting
dunkerque
menages
calvados
mondes
essayiste
encontre
bordure
chauff
habitats
].
hak
confort
##hip
entrainant
##ctifs
##fu
favorables
seattle
globale
##itaille
##aisme
metaux
tennes
fosses
chapitres
crou
melo
commandee
delai
successifs
desquel
##donald
bretonne
migrants
demandent
joues
##lets
survie
cerf
tchecoslovaquie
condamnes
##olles
##opath
devise
tiennent
1811
european
magistra
=#
excellence
param
patrouille
summer
puissent
confusion
##issante
nikol
ralenti
##vern
##cks
sylvie
theologien
reunions
beaumont
craign
lineaire
pacte
monst
bn
sylvain
figh
##bilite
locom
irene
harmonie
barrages
considerer
partition
battle
fresques
usages
lgbt
lind
hydrogene
##alez
dialogues
mercedes
sugger
ey
mayenne
##bb
archive
schne
constat
##tillon
##ark
reves
slalom
##tidae
trouvant
mammiferes
##geon
alberta
bearn
guate
boxeur
appris
grenade
2e
joie
nationalites
##aton
##auffe
prevoy
fabricant
##rois
cyclo
indiquent
##chron
##oga
verdun
phone
indoch
degres
sporting
ulterieure
tut
pittsburgh
marianne
travailliste
subsiste
restee
africaines
apport
intensite
1799
reconstruite
simultanement
eprou
##ango
doux
giac
maintient
##ela
jeremy
senegalais
benne
cann
rousseau
rejoignent
tennessee
terry
emilie
reprennent
zin
##thers
##assa
saul
sacree
contiennent
antarc
cable
rhe
##ouz
chu
aborde
haine
coreenne
adhesion
luxembour
troncon
sion
##culaires
fichier
##tta
autochtones
##lemy
##fli
##pie
maconnerie
##yu
notorie
polo
reconc
abat
##aissait
##guin
##ffen
nommer
##marion
ardennes
douleur
cave
lea
cut
##pages
anthologie
wurtemberg
supple
##arites
##avirus
##iches
brabant
eclat
##ibus
faubourg
##oki
congolais
notoriete
##ird
ecrase
suffit
omn
predecesseur
antiques
ponte
spons
communi
dip
gest
hul
##eria
frontal
danseuse
##orium
enjeux
emprunte
##geot
alv
prolongement
enregistrer
##dez
##chait
troyes
habitude
couples
wwe
warren
mississippi
jah
chapeau
fonder
discre
##essa
abandonnee
gardiens
##ism
gers
jupiter
##iidae
##ischen
renverse
##chev
amar
angles
decer
complot
geometrie
caracterisant
guil
achevee
paque
africa
1798
allu
ruth
ecoule
renseignements
brune
invis
insiste
enver
discussion
recre
##ifs
gp
##istol
##venus
occitan
rappele
fonctionn
macon
prevision
##tical
##aguay
gonzalez
##ablanca
iranien
permit
axes
##oce
telecommunications
historiquement
lens
massive
sonde
))
estiment
normalement
lop
whe
romanciere
firent
habitations
approximativement
communement
vies
baies
cultiv
magazines
disciplines
differe
indispens
missile
atterriss
nordique
java
flammarion
disent
soft
##aff
##iera
proprement
ecrivaine
appelait
studies
blanch
serieux
diplomatiques
jorge
offrant
sanchez
luke
##amba
judiciaires
anders
qatar
eclairage
vegas
##aide
##lante
reglementation
proclame
rut
hymne
##roe
coff
brooklyn
facebook
erik
patrie
##dge
hierarchie
ghana
vieil
##atisme
notable
rossi
caraibes
restaurants
barthelemy
alien
sonate
reprenant
attribues
heureux
##osyste
atp
wilaya
ming
preoccup
tommy
broadway
tum
passionne
pourv
##bat
##mbler
lys
supporte
adapter
indigenes
simpson
cristall
oug
##opol
hind
montes
ferry
libertes
##idiques
ancetre
profiter
##jn
dad
alphabe
agression
solitaire
cereb
relatives
wta
percu
console
omar
artificiel
priorite
isle
departementaux
fichiers
limous
datent
directive
randonnee
wag
christi
tubes
chassis
##bet
envelop
tole
ainee
##pedia
equivalente
fifa
##amation
prets
terrasse
obe
1805
esperance
werner
manhattan
goul
genoci
mobiles
##rim
helen
lal
##iac
assain
composants
arcade
jennifer
appartiennent
##elect
olive
klein
exerc
kau
came
draft
appliquee
moral
segment
##dj
##erait
##ereau
##ography
##uies
peste
chair
##lice
tuber
##idou
##arios
candidate
infrared
hachette
spec
susan
cavaliers
horizon
votes
puissants
citoyenne
kla
bridge
detre
creations
plastique
hollandais
sund
dong
gravures
bolivie
nass
##ount
##dict
buis
magh
neuchatel
##itive
hydrographique
##inge
phoenix
parts
##atisation
##lliste
futurs
chira
commerc
doyen
phares
rachel
sri
partager
figaro
lug
coque
nue
vitic
vengeance
quittent
jaunes
roub
gb
##dice
##60
conclusion
##omer
levee
metallique
cristal
bassins
yvelines
datee
lazare
##abol
feuilleton
relegation
##iber
alab
recrutement
urbains
affirmant
reparties
bombardements
pick
terminus
entouree
magistrat
ressorti
senior
##intement
perp
chartres
##timore
torture
cran
precur
##permes
billets
chocol
podiums
##aland
abc
proviennent
honoris
rwanda
dossiers
jans
cohen
toiles
##ampes
anal
demonstration
depots
##ungen
bouddhisme
deur
##achim
marketing
proposee
hale
revers
tueur
alimente
allee
horn
year
adaptations
decrire
paralymp
##nt
tosc
##illages
apparemment
beatrice
##ank
tabac
contour
parlent
sidi
interface
tragedie
deliv
emergence
effectuee
samp
sortis
##endra
rames
mck
encad
proposent
intime
read
zam
valide
memb
mickey
organique
abolition
agriculteurs
##oin
polynes
terroristes
complique
##lus
finistere
##andra
picardie
mend
remor
extin
##entiel
separes
accidents
centr
vocab
promis
mist
electoraux
##enaires
retenue
360
buste
ery
confid
##aru
gasp
##aldi
chanoine
rico
boi
choisie
possibilites
urbaines
cen
mrs
philosophique
##ilia
televise
turner
divine
mele
explication
brique
kilometre
chapelles
cyber
indo
border
dys
televis
##ingo
##iec
aluminium
fland
##aps
##ometre
timbre
deplacements
fritz
proteges
babyl
##fol
tropicale
disco
confiee
##aing
utilite
erigee
sergue
traum
monn
poursuivi
contribuer
humide
martinique
persecu
transporter
##itee
##mur
official
souffle
electroniques
vilaine
nash
doubles
coequipier
##utique
archeologue
exceptionnelle
cinquantaine
lost
confrontations
##llon
projection
acoustique
baltimore
##table
cofond
ouvriere
natura
hang
transmis
glasgow
##ordee
pacific
activement
briques
minuit
piv
##tilite
authen
chimiste
seoul
messieurs
evoquant
mall
tonne
decal
collins
1780
narrateur
kot
morbi
olympia
chanteurs
harmattan
brigitte
hus
emin
cres
ancetres
toucher
content
china
mesurer
sensiblement
cereales
conducteur
loint
vieill
conjointement
xbox
refugie
groupement
suffrage
etes
poudre
##endance
##apo
casablanca
terrible
egyptienne
engl
##lini
remun
tigre
cun
accompl
courante
##obe
bea
joye
geo
disputee
meeting
transept
cadav
magnus
composees
meh
andreas
cloche
integralite
angelo
##....
retrouves
juridiques
##yss
ravage
italiennes
linter
sortent
perpignan
##enko
simplif
##ernite
like
bourges
##ocene
##ulations
magnetique
bielorussie
emprisonne
ailier
nur
joachim
##zet
sinon
##cese
mange
##oric
variation
escorte
slovenie
##azar
immer
automobiles
avoue
##gences
legislatif
academique
argile
concepts
ich
flag
##ocar
conrad
solde
##ducteurs
considerees
dominant
moreau
flan
intercommunalite
##yton
bassiste
champignons
gly
##rico
promul
distingu
##inale
terreur
monetaire
rappeler
dean
##oms
##iente
josef
eag
installent
##ogra
holmes
traitements
timbres
comptent
sulf
fallait
agro
indiquant
voler
juriste
carton
martinez
centenaire
artist
raz
ward
copro
mitter
##far
##ultur
romaines
parvenir
perche
conform
oss
ravitaille
nazi
chaos
##gations
carr
caric
romeo
leclerc
##avan
ignore
dop
nog
menes
essaie
pater
keith
num
##oub
lorenzo
bov
deputee
technologique
nouvellement
angios
barriere
oscars
gent
shi
ducs
exemplaire
envie
archiv
acquerir
kru
milles
blake
declarations
##ensen
casting
heberge
respecte
consulat
##ayer
montg
demain
dense
couverte
##tti
##conque
temporaire
retro
hellen
kum
hugh
arena
abstra
eti
titan
casino
deutsche
demandant
iber
constructeurs
serveur
cratere
defile
philhar
robot
chevre
##oon
somb
symptomes
lup
chauss
grie
realisateurs
inspir
remer
minorite
harrison
centraf
clara
##lait
##venant
accompagner
echel
accuses
antilles
faillite
serbes
confond
##yr
##into
##beek
rudolf
##bek
##geoise
##bation
1797
gain
angela
missionnaire
cric
shah
1796
wallon
infil
territorial
intellectuels
lorient
archidio
defenseurs
israelienne
technology
panthe
gos
inondations
morales
plafond
peuplee
oublier
suffixe
integra
##----
kaw
legal
boutique
developpes
reu
touch
##terdam
signification
redecoup
travees
info
connaissent
enig
bachel
contrainte
ecosyste
perception
##iba
patricia
pecheurs
austro
meta
pattes
##cos
responsabilites
gaulois
ml
invitation
explicite
##jean
preco
deroulee
1758
voulant
bj
foire
entrent
agences
moss
fossile
temples
occidentales
dale
##crip
bouches
##otypes
valign
online
alaska
arrives
protestant
violent
augmentent
shel
moll
angiospermes
##formes
souffre
aleks
faus
##mod
supercoupe
##linaire
yas
abu
sarre
sphere
carres
hector
eques
valenciennes
wille
nk
yemen
cage
resident
precieux
##lau
papa
maud
compatriote
papillon
redecoupage
##wo
fier
soie
silva
dissoute
ltd
##rasses
globalement
##contin
##arius
auteure
##opee
specialises
dennis
##ifie
thera
facades
sarthe
tuc
tell
morbihan
shir
dessinees
asiatique
shim
tenor
incertaine
##iao
reconver
##cere
side
comprehension
gorge
acides
interse
hid
atteignant
apot
gravement
chirurgie
##mala
lenn
poussee
##gnon
##lius
etendu
tomas
effondrement
replique
itineraire
blonde
##inn
##oiselle
partent
certes
##roise
depasser
##oter
brothers
funeraire
approvisionnement
posee
rotterdam
mecaniques
fernandez
parlant
##jord
##eriques
telechar
##zar
amical
escadre
lp
##onnements
hudson
pedagogique
##lete
vocabulaire
##ucky
zan
tellement
delegues
mountain
##uvre
macedon
obje
engagements
alc
##onnie
##bad
parade
##vich
concurrents
##olyte
productrice
roumaine
mold
collaborateurs
fla
##ctic
ouz
charite
algorithme
##craft
copa
patriarche
arab
alabama
transmet
lhist
regarde
diamant
kins
craig
sauveur
##mers
fuk
peloton
pauline
obtention
##instein
naturaliste
coronavirus
fonctionner
homonyme
atteignent
amazon
virtu
nil
parad
bataillons
molecules
##uaires
specialite
prieur
##esa
rochefort
again
##erable
bij
alexandra
diplomes
##rell
ethnique
ambition
matri
operateurs
herman
##ahl
##host
eveche
fluvi
fk
industri
tissus
1775
##atz
constates
##lock
chirurgien
##iele
exposee
desesp
##tella
ariege
fayard
##nistes
dubois
chatel
exigences
asiatiques
mate
##cum
##erance
neutre
nicholas
astronomique
coureuse
prose
reliques
vignoble
ceder
terroriste
crac
prestig
bard
##ency
interpretes
##ports
mecanismes
accusation
rendue
metam
relance
prestigieux
obtenue
restit
fondations
denombre
substance
##zbourg
##fford
textile
sortes
vicaire
##...]
##olini
exhaus
mexicaine
medicis
quais
matrice
comedienne
tutelle
assurant
amal
coast
routiere
compromis
dort
##atch
##otives
##ophy
aboutit
aggra
domestiques
publiquement
presidentiel
armenien
motte
##alyp
designee
interdite
##azzo
indochine
expos
echantill
beauvais
repousse
mitterrand
pseudo
aquare
administre
review
vieilles
mcg
##pan
confondu
fonce
perm
poz
spirituel
preliminaire
lich
##kal
350
bruges
copies
girard
nœuds
bangl
carmen
trilogie
chie
castro
commercialise
indemn
strict
##peurs
predic
degage
##orne
opposer
animee
##rai
peugeot
##ск
reproche
soulevement
##23
produites
arran
##odyn
declenche
cameron
##oique
amas
retros
naufrage
filip
entourage
mensuel
cuir
spa
succeder
drome
altere
khal
apogee
locomotives
planification
ressenti
giorgio
##lando
verifier
croissant
decon
degu
guise
renouvellement
devance
durand
##ineuse
halte
lann
##quins
##sf
##rault
desp
immat
differenti
##rh
##gure
sauvegarde
./
inquiet
##ruct
some
cloud
relate
carbon
subir
mouss
guine
ales
produisant
elire
elie
coch
edimbourg
jag
##igraph
malo
paraguay
sexuel
nationalistes
detruits
clay
##borough
scre
salue
residents
montenegro
decouverts
thunder
wallace
kirk
auxquelles
pete
linux
pionnier
yosh
plats
porta
atterrissage
##inth
fixes
oslo
##ving
cecil
##gnement
reguliers
ceremonies
grandeur
taure
##œuf
geologique
nutri
prestige
dru
ornement
sigle
##reux
menage
combattant
a3
##ingrad
reparation
##iva
gravite
ibrah
judaisme
carrieres
gastron
malle
existant
##chie
abside
##imetre
faudra
pluies
entraineurs
patinage
plastiques
controles
michelle
sommeil
espionnage
choi
##ratoire
##vir
liter
richel
chinoises
appellent
presby
forcement
demarre
rivalite
tapis
##hm
mulhouse
##ounde
d1
##outes
effectues
buck
battent
aperc
nuls
[...]
rire
rabat
?)
##ilh
livra
jungle
archidiocese
hotes
kane
##ibou
mediterraneen
geographiques
##mand
yonne
elevees
genocide
stadium
modifiee
lyrique
obtiennent
perry
creent
mobilite
ajoutant
retable
##wi
##actyl
papiers
terminal
assainissement
##cti
piscine
cho
birmanie
traitant
##omption
##atti
manœuvre
rate
recteur
etendre
exceptionnel
convaincu
rass
nob
##atum
deport
patrimon
ajoutent
##nal
##chio
santos
enregistres
procedures
exterieures
##olph
entites
##chir
citation
nacion
roulant
impro
palatinat
constance
libr
##ucci
legendaire
amenagements
renoncer
faces
##cidae
journalisme
hospitalier
##over
newton
baptisee
minus
##town
##mblant
perrin
nulle
1788
##arra
psychologique
temoignent
assembl
sardaigne
voyant
citade
paleont
alessandro
retrans
liu
couper
boucher
schneider
eol
##umeur
anneaux
inedit
specul
affil
caz
audit
str
virg
bourd
##mento
gymnastique
licencie
assis
oro
##mill
verbe
##cq
##oca
gouvernementale
##cot
##rees
##regon
m6
##mol
rachat
##ongo
##igo
##inus
##kos
pompiers
ome
roberts
publishing
pantheon
##amoto
prestation
blois
##rang
sister
tranche
knight
must
cercles
forestier
ardeche
continentales
jesuite
##sian
##ocl
channel
exterieurs
tsar
spirale
aaron
##ove
rage
##fus
lama
loue
##alla
gode
storm
gaule
##change
##quil
sg
##yg
ecarte
chapiteaux
celtique
horloge
implication
delic
vien
##ffes
##heran
faun
tribunaux
inval
etudiante
organiste
ronald
directeurs
reorganisation
##ropole
bouch
radios
partagent
billet
##kie
arrets
affrontements
guatemala
dominante
liberale
composent
chevet
mg
##illade
brasserie
##cester
voila
syrienne
##acle
socorro
venezuel
decisive
seb
hygien
oil
prolif
trous
osaka
reten
nab
##iendrait
evacuation
##idation
sociologue
sevres
laissent
serguei
commente
croisade
reunir
##ycl
##onnent
arcs
richelieu
concernes
charler
justement
precon
aveugle
pourront
coran
apocalyp
##ipe
##etto
delph
incorpore
jub
materiels
envoyee
toscane
##olt
abid
pseudosc
autobus
lucie
acquise
extinction
##ophon
entente
disposant
lettonie
detache
ukrainienne
herbe
oregon
batteries
supporters
analog
...).
rica
regis
##avor
##vas
weber
violents
california
spectre
freud
celebrer
encre
renouvel
epargne
enl
frequentation
merveille
traject
sexuelles
paler
diplomatie
deploye
susc
motion
racon
##prise
##aint
heroine
serve
observateurs
hassan
harce
obstacles
charleroi
maintenance
vene
##ouches
legumes
##pu
eclair
spont
decap
remb
##pectives
plongee
##rio
##entielle
zhang
##mu
stanislas
##ouses
effectuees
##antisme
##liers
##core
tyran
hardy
adolescents
##urance
disposer
recul
hills
kras
bore
selectionnes
mez
decline
auxerre
##tisation
html
lhistoire
meurthe
##homme
appuy
souterra
oceanie
soigne
##hadistes
allo
humanitaire
critics
oul
diminuer
900
dod
##hua
envergure
##asme
##acture
grottes
beet
butler
utah
'',
promenade
matte
proposant
ratif
visiter
into
successives
assise
(*
derby
ames
qualifiees
tactique
henrie
##ayes
chronologique
vampire
admet
foundation
aure
mab
ornith
cricket
##ommes
1770
jessica
monstre
prouver
##lahoma
asile
surmonte
near
theatres
nina
appels
mount
prolongation
byzantine
sidney
norvegienne
murphy
lave
##ctorat
xian
##hardt
parme
introdu
arretee
meurtres
mondiales
schmidt
legitime
##ouverture
julius
provoquant
##mises
##tige
adhere
##qual
credits
confirmee
pib
teheran
croiseur
repons
##ych
fusee
persist
##caa
##olee
angola
pdf
##lt
##roix
gise
remparts
##cott
criti
hommages
##illent
creatures
dors
##pper
esperant
emily
manufacture
pensent
residant
cess
zap
garden
militante
##rett
bird
##oh
##rammes
douai
wallonie
oph
etablis
detection
viktor
blas
librement
maryland
trouvaient
##ycle
melodie
vernaculaire
crypt
grange
##riger
short
##mc
##nard
honoraire
tg
infini
masques
ignor
ordinateurs
considerant
essayer
d3
catholicisme
battue
##ulf
##cinn
vignes
declarant
mits
energies
assises
achille
1787
telespect
##zow
genealogie
##itrice
proto
exposes
decharge
chatillon
boeing
convient
poitou
mv
alternatif
##opot
obus
atlantiques
plages
##leurs
##iez
particulieres
##thier
caserne
schles
etablissent
epu
1750
secretariat
englo
intercep
cincinn
##torio
therape
mcl
bombes
wei
##agua
partagee
##pha
interaction
violente
nocturne
veniti
sensibilite
laser
compens
eugen
oklahoma
##insky
albanie
ambiance
wallonne
aliments
stern
bars
berke
monaster
##agnac
disparus
invitee
linda
mande
##strom
buffalo
comic
evoluait
##phones
amant
##itable
offrent
cibles
##aldo
avorte
##ondo
reconnus
##rel
herbacee
karen
partisan
accompagnement
dependance
possessions
larmee
haz
regent
jambes
tetra
vagues
##vor
hk
resister
handicap
african
##aren
nassau
hert
forestiere
detri
associees
pratiquer
una
blaise
doubs
developpent
##aque
##zza
touristiques
obs
originaux
maghreb
guad
connectic
rebelle
##accio
metre
intermediaires
ghost
##roll
connecticut
eloignement
chirac
bacteries
##iri
mariages
elementaire
##alisant
souverains
##oper
gael
volet
fermer
rumeurs
mord
paralleles
##rough
liturg
sonne
giro
megal
potter
pseudoscorp
##ст
dent
creek
camarades
interessant
chausse
antoinette
logistique
regulation
##ams
bourgui
##kai
rei
crimee
hainaut
infrastructure
lore
plou
##consin
jusqua
wehr
##rud
##opro
pilier
##chus
obligations
##ibe
railway
##oureux
warri
plates
violoniste
approfondir
##66
poke
gad
gains
##mun
zelandais
cand
dissim
3000
##rope
touches
trahison
exister
absten
kentucky
wisconsin
##osphere
##…]
affirment
recents
smart
potable
appartements
restauree
onzieme
accou
##lberg
##aks
##hasa
##royer
tunisienne
turk
missionnaires
conservees
modernisation
amerindiens
experimental
estiv
##loe
survecu
francisc
evaluer
tables
vaincu
##jin
charts
relier
quantites
##iaux
rapprocher
rade
novel
decalage
vog
##vra
exile
helicoptere
kazakhstan
donnes
firme
##hiz
reels
##icie
stephanie
##lient
evite
hesite
intim
interventions
than
edwards
admir
environnementale
##mia
ideologie
temporairement
##acio
said
marocaine
zimb
steel
qualific
designant
1784
laboratoires
bapte
rehabil
consens
conseille
saturn
arras
synonymes
cfa
incluent
antarctique
resistants
quimper
rau
bete
conteste
rendit
dictature
prehistoire
ncaa
intellectuelle
wonder
carree
demoli
engine
##tification
nfl
armis
actu
##adesh
certificat
identiques
unic
ellen
passees
##enon
clarinette
1785
##chichte
reservee
contenir
palme
##etta
banquier
miracle
fabriques
kok
queensland
##irat
incul
lima
saintes
ches
know
gott
fixee
hern
parking
calvin
motiv
diffuses
jolie
roubaix
greco
hydrol
hierarch
seances
mathilde
contraste
library
[…]
##eros
mediatique
cracovie
domen
spencer
consommateurs
##...)
nacional
rui
desaccord
hippolyte
spirou
denommee
##lex
kyoto
##tone
kinshasa
calcule
neglige
celebration
progressiste
scope
##allo
distinctes
1783
refroid
servit
ambig
haies
1600
completer
clinton
ecrivit
saf
ik
portland
##iley
block
attribuer
coiffe
poul
hyd
fabriquer
fraction
matthieu
finissent
##uli
roum
agees
homologue
dresde
pn
##celles
trouves
delimite
arachn
abattu
perdus
nah
##obie
tirant
nageur
##kop
sci
degrade
estimations
camions
cedric
recouvre
gate
yaounde
##mait
annoncent
lane
primi
festivites
sessions
led
celine
##case
terminent
pf
atle
juives
palestiniens
leu
##amie
##ival
colloque
elena
##22
appartenance
susceptibles
vastes
platon
tier
vint
##yi
pommes
japonaises
heritiere
##rass
lecons
rapprochement
fabrice
perig
jouait
annonces
##rigues
##atiale
veronique
reponses
zamb
levi
cambodge
plateaux
##ни
anglic
brandebourg
##utz
bous
hano
mk
quils
beyrou
prevues
delle
commercants
##arel
eston
consomme
##piration
independanti
##onnaise
constituante
marl
vives
inscrire
renouveau
arcades
airlines
##ania
balk
detachement
avancees
rebaptise
wen
##gier
euph
ellip
racont
faure
hack
made
cret
metamorph
commissariat
##sb
##omar
jong
pins
dissous
##hir
##illere
hep
salaires
sequences
telegraph
##ophones
pause
marseill
vaude
rex
##ourir
magnifique
sienne
sha
##itisme
mrc
manufact
incendies
til
gouvernance
regroupement
coach
blason
##ities
perimetre
ida
voyageur
auf
contam
mentionnee
audition
fibre
prelu
holstein
negocier
deficit
dumas
viad
sensibles
##champs
albanais
berkeley
laine
armst
…).
loth
concernent
jonction
anthropologie
beyrouth
till
##arth
captain
mayer
martyr
entretient
romanes
romance
batie
florent
philharmon
laterales
##opposition
feminines
propulsion
doig
recueils
##flix
kiss
essonne
##cait
significations
recouv
collegiale
sollicite
complexite
rectangulaire
##xy
armistice
intern
allusion
citations
omb
depour
celib
mega
artisanat
apparue
##tiemes
brid
uber
graphiques
vire
piot
souci
sque
engendre
##nable
staline
casa
garnier
vivait
poules
confis
anticipe
frapp
hormis
consacres
emigre
##35
nazie
voyager
##rones
saxophone
intercommunale
##rail
geants
servait
##acht
sensibil
##rina
attendu
ceram
chances
mayence
loups
guides
avenement
pompidou
benefice
carnaval
maquis
scenarios
##odi
collegue
ire
epouser
##rites
maintenu
refusent
##rasser
infirmiere
diffuser
vaucl
watson
##||-||-
syntheti
cincinnati
fischer
cros
visuelle
preservation
epaule
rurales
ambitie
damien
pleinement
cloit
##quees
graphe
za
virginia
progressive
##das
atomique
lucra
##onnage
comportements
annexion
##vitch
look
aki
##nasse
##apa
##zyn
obtenant
##opes
##andaise
determination
joc
sables
ramener
netflix
bayonne
radioac
oreille
scin
reinteg
empois
adelaide
choisis
apoll
deportes
incapable
affiches
telespectateurs
mie
attaquent
instructions
nol
##chot
voutes
reutil
##trie
konig
ventre
##bou
habsbourg
deleguee
confronte
trophees
benev
chretiennes
exposees
nun
pell
compositrice
dedic
chaux
dues
rattra
3e
josephine
english
##lec
##agiste
indiquer
separer
neuilly
sois
spirituelle
executer
cia
gur
statuts
deuros
barber
promesse
1776
aul
photographique
##abwe
revendications
pk
1760
accession
divinite
adrian
bath
fiscale
noe
##tiver
##acy
bee
ramon
massacres
sism
##quetes
confrontation
planche
pile
wie
##chia
criminelle
taxes
filiere
permanence
psychiat
tuy
bever
citadelle
incons
clavecin
creature
transferee
cotiere
rah
chroniqueur
##hee
socialisme
anatomie
quon
wien
venger
elevation
environn
borough
monique
bonnet
armstrong
sweet
deep
specifiquement
elever
deporte
desastre
brah
1786
##ful
mortes
basees
##mitt
##ering
pcf
carmel
compagne
constamment
remporta
manit
separee
phara
sanitaires
employee
rappelant
decoree
lock
vl
cyn
##oline
composant
##pro
schwe
small
cahier
autorises
publia
prestations
castle
lhomme
emo
hypotheses
fui
##terres
relevant
vogue
digne
strictement
adi
barres
escalade
nickel
pourcent
nont
prevenir
atlantic
##erees
confinement
assurent
transmettre
reap
fievre
##mingham
niece
precoce
aber
##vy
sabre
guitares
evel
citee
pdg
accordee
##nil
incur
##25
freder
memor
registres
consecutives
sper
edith
morin
##issance
##rika
confirmer
annecy
igor
zar
xve
##villiers
abouti
peruv
dress
rosen
sondages
milice
ibrahim
chambery
orlando
alla
pog
travee
signaux
##nica
##cutes
degradation
tie
belfort
stur
strat
negatif
affrontement
danses
##mire
rtl
cacher
remontent
piz
rechauffe
pousser
ub
conseillere
jesse
porteur
##orteur
##phalie
necessairement
sket
avez
rite
ramb
reci
informatiques
taxi
sot
danube
##vons
##itzer
cycles
provid
favoris
martial
##tissant
abdul
pentes
ivoirien
gian
1778
franchir
rhet
##chaux
gazon
enseigner
zimbabwe
vaccin
##raire
quelles
wend
chelsea
nikolai
##abase
proposes
##otherapie
paysan
succ
loe
##cke
corb
filme
bagn
croissante
middle
surete
prestigie
porc
##cock
ruf
tardive
kang
inser
tristan
##nieres
commissions
inhabit
##70
grains
significative
hilaire
data
bourgeoisie
sei
technologiques
glor
barack
sorc
birmingham
rejete
karate
telefilms
monstres
lucy
tanz
##ussy
##cipation
affirmer
introduite
assomption
betail
relatifs
collier
cue
pip
soupcon
benz
portion
##gem
placees
prealable
torn
##ieusement
fresque
reporte
##omez
carac
born
##loo
grammaire
strauss
conversation
bangladesh
detriment
exploiter
palmer
hiros
fondamentale
##ailleurs
##db
justifie
delim
vannes
chas
1763
inquiete
castil
cantonal
featur
volks
watch
ecrans
##bour
illustres
##hrer
mond
emerite
realisant
##ouement
factor
##vene
##peg
never
aeroports
insurges
##otation
aerodrome
criminel
estimant
kayak
accorder
wings
##gins
##azi
indicateur
jumelages
deform
plaisance
tibetain
hag
monnaies
inscrivant
after
couvrir
alternance
otages
##ра
##atte
separees
fragment
##arum
dere
colleges
siberie
##iculaire
eryth
envoi
proteine
connexion
frise
##90
decre
amphibiens
bryan
##bio
reuni
souterrain
qing
disait
opinions
sob
destroy
atletico
completes
varies
comites
incroy
cendres
charlem
retrouvee
huitiemes
patriotique
strategiques
ow
##macht
attractions
favori
familiales
##45
interactions
immediat
##oines
entretiens
lumin
meubles
substances
catch
cintre
medicales
willy
##anova
enseignements
vera
montmor
renforcement
voltaire
leslie
##xx
kamp
pix
jugee
dialecte
##ettes
croisement
notaire
charlemagne
diana
mystique
livraison
trail
lentement
##assique
pais
hauteurs
cascade
chalon
organisateurs
neolithique
dee
genou
lamar
souhaitent
posseder
emparer
cultes
secher
amedee
cloches
kop
profondes
##road
metalliques
cesser
##ogn
##mos
mortalite
enlevement
limousin
trich
repart
111
donjon
lectures
polyn
hohen
electorales
anterieures
##zier
##ße
pots
##ortait
corbe
emerge
##minster
##sement
mae
germano
beatles
miniere
1700
carav
miy
biologiques
1777
frequentes
judith
espagnoles
##ibert
controlee
aque
felic
garantir
ping
##yang
casque
adjac
deportation
defavor
retablir
campe
grise
coqu
palace
confier
##ders
racisme
rams
fret
corpus
##gus
communiquer
pressions
pese
##tices
stevens
ouvrent
bennett
composer
koch
klaus
##ierre
purement
charme
todd
##dar
cogn
##iait
dispositifs
##ffel
mug
##auer
infection
fisher
spectateur
telecom
yun
surnommee
viaduc
federic
##phon
slovaque
##feuille
thematique
royales
##py
benefices
fast
explore
##attend
heritiers
##piers
kenneth
chartreuse
##dine
##ellan
mysterieux
sacrifice
standards
toulous
expeditions
development
renvoie
endurance
maximilien
moldavie
propagation
##dell
adolescence
foul
##war
aimer
doigts
arbus
##atro
pors
shoah
madonna
fbi
perspectives
coq
dass
##icks
histori
danoise
##rologie
nageuse
beren
offres
foyers
disposait
##olds
alphabetique
nomen
cyril
innocent
marron
revendi
nikola
duke
josh
socio
rdc
leroy
##uras
living
dusse
##ictions
concus
##fen
reviennent
collision
ante
##aville
prostit
pairs
cherchent
egypt
appuyant
supports
esqu
braun
##verne
gomez
clemence
pertin
inedits
radic
dero
fris
unit
luca
rebonds
diaz
survivre
absolu
pneus
judo
##df
##card
ambul
stades
munster
lok
inache
##enza
interieures
zou
cister
reacteur
kant
enonce
renfer
exclusion
crucif
maturite
county
brillant
rohan
solides
abreviations
miran
contrep
caps
lunaire
torre
cousine
douzieme
asteroid
sponsor
federales
investisseurs
encheres
individuels
##erton
crea
intensif
##arina
about
radioph
emeutes
synchron
indication
infin
##thes
##ør
opposes
colombien
anom
bald
prolongee
paques
##velt
exportation
articul
autobiographie
most
morphologie
gis
interieurs
gratuit
vecteur
audite
restait
loz
prevus
kub
decouvrent
tigers
proie
pollu
crue
correction
##tch
incidents
airs
##olaise
denise
bristol
faim
scep
croisiere
jadis
montana
probabilite
etiquette
agrand
ank
arrivant
ravitaillement
huss
limp
apercu
##armes
rythmique
##kong
lecon
durer
recommandations
gog
##arienne
intervalle
chauffeur
##jas
navigateur
transformations
aph
##24
##allah
monarch
##ono
quinte
="#
##rille
cylindre
forges
bapteme
contenus
elites
decoratifs
trek
rachet
laureats
ecouter
##stom
oue
fibres
monoc
chutes
marius
jambe
yel
##21
impre
accompagnes
poursuivent
glacier
affaibl
##vine
hydraulique
initiatives
guerriers
valais
brigadier
invisible
mauvaises
ultim
recouvert
intersection
roma
condamnee
salons
teste
superp
full
name
##orelle
animale
rca
sida
wehrmacht
tech
##org
##isson
cao
aristote
##iot
regler
joua
evolutions
jab
rejou
squad
emirats
arro
armor
mecont
mick
stro
##acri
reamen
pionniers
ns
##tissent
absolument
departs
pink
psychanalyse
geoffroy
heur
##erd
zim
bordee
dispers
douzaine
meck
medicaux
sondage
chome
creme
rejette
migration
##arro
bits
fregate
consultation
pokemon
gaza
##iones
southern
1782
pharmacie
entrepris
prendra
##px
carcass
rassembler
brul
tess
ferroviaires
ottomane
poetesse
curtis
automatiquement
##lar
chuck
##encia
##ways
palerme
hd
amand
gross
days
##rup
historia
##h30
folklore
electrom
livrer
ouvertement
##js
decent
editorial
wells
1774
##urn
ecossaise
featuring
demontrer
lombardie
indispensable
observateur
vaucluse
dupont
dje
titul
confrerie
##ronyme
bruy
reflexions
mme
##viers
tart
moise
disciple
abidjan
capp
indices
carab
assemblees
acad
mn
##ieri
parquet
oreilles
##illement
alloc
miel
metaph
##loc
sonores
autrichiens
##lection
roe
serpents
sorciere
dakota
denoncer
blind
marier
exportations
##sieres
repetition
##cone
isma
definitif
monasteres
stad
gem
restrictions
rogers
lepidoptere
controverses
trouva
treve
actionnaires
protegees
excellent
emblematique
hope
lact
situent
improvis
jeter
##ampton
genus
##mines
montau
martyrs
##mac
progressif
croises
dese
pand
preju
nuage
luxembourgeois
approprie
montpar
retraites
hunt
talib
danseur
auxiliaire
strategies
taxinomiques
vegetaux
rda
descriptions
cyp
##zhou
proceder
rum
lotus
yuk
prol
##annon
##taient
##affe
levant
biennale
grecques
anarchiste
##bit
mind
difficilement
##mbo
couture
bonif
sco
450
cooperative
chocolat
seisme
orthodoxes
malcol
commercialisation
sherif
stee
##quise
egide
beethoven
demons
##weg
isot
concernees
gloria
##fra
poznan
##katche
##erailles
cheikh
supervise
demolition
gabrielle
council
declenchement
curie
complementaires
royaux
sulli
lautre
io
evasion
chantal
protagonistes
dusseld
montparnasse
dailleurs
nuages
interpreter
##imi
humidite
bourb
tae
sejourne
tick
##heimer
privileges
lange
tann
gorges
lancien
manteau
sachant
cherbourg
scolarite
togo
chanoines
fontaines
bess
price
mesurant
pons
italia
perigord
##cam
script
poitrine
mœurs
##opie
paralympiques
connut
malcolm
regroupes
tip
parfaite
natif
leh
cassi
hanovre
rendement
restaurer
visuels
porche
roussillon
encadrement
felicite
vita
adolescent
impasse
carcassonne
mixtes
hered
araneae
pochette
helm
ecclesias
##undi
emporter
shu
antip
orfe
enjeu
##gary
##geres
songs
avancer
thi
##chester
brand
ia
instances
##enet
hemis
negative
balkans
incite
desservi
##wski
sculpte
hygiene
##mati
##atore
##alia
specimens
flow
polym
amener
ouvrant
pirate
guille
cloitre
tach
dylan
picasso
tires
mei
lanka
complementaire
perturb
##ners
commencant
soumise
quantique
plumes
fondent
octave
accel
opposent
supprimer
##tium
percussion
maree
carross
cib
atomes
##caire
groen
cofondateur
harper
##kawa
masses
zoo
##ating
malga
collectionneur
canard
tyler
##aiques
##alisations
##actions
santo
expressions
organisent
##aty
percee
##thy
montagn
##jeun
dap
speed
transcription
equations
sos
guel
tenues
saskatche
cbs
trajectoire
bott
other
nevers
mason
hydroelect
erosion
valery
veritables
saskatchewan
pluriel
athletic
gouverneurs
souleve
##cor
funerailles
joa
##quit
saw
menson
specialisees
##hern
bouclier
lituan
##hier
mobilise
##adin
commem
henriette
amelie
alpine
ajoutee
mozamb
christmas
jake
entiers
alic
chop
appuye
olga
expulsion
##pol
poutine
holland
blu
figurant
violet
ail
consultant
dimitri
##idis
options
zach
syll
diriges
##awi
criminels
redout
panzer
kv
fixer
etroitement
fidelite
independantes
tresorier
rebec
eventuelle
crises
soupconne
trouvee
reunissant
eduardo
thess
conge
##ineau
namib
qualifient
villiers
deutsch
fasse
intes
helicopteres
absent
beneficient
220
gratuitement
utre
periodique
editee
##imo
puf
##oral
flandres
rita
guerrier
##diences
poes
muham
interpretations
traduire
happy
ie
iw
floristique
arguments
cellulaire
clarke
cisterc
edwin
garantie
gap
humoristique
deploiement
elf
esclave
concentrer
cuisin
systematiquement
drive
##opolis
composantes
marquants
board
destroyers
phyt
artois
jama
foster
tenait
kick
##esser
sylves
ulterieurement
##atra
##verser
confondre
assemblage
mesurent
##cades
montmar
##hler
prononcer
agron
dais
anglaises
hybride
inflam
andrei
declaree
##visme
cantal
##ady
renforts
operationnelle
encer
procedes
##oidea
mongolie
fonda
exploitee
lign
collectifs
premature
bailliage
nure
regence
futures
##ords
##dh
demanda
calgary
fabien
entrant
##uber
evangile
panc
reappar
hercule
vivi
travaillait
nourrir
##mea
eus
bagdad
pans
humoriste
##cape
defunt
langu
justifier
##born
exclu
tournes
##orat
virtuelle
##uchi
correze
krist
wikipedia
canne
pistolet
bc
revi
emi
##bleau
dose
1772
transferts
tragique
nationalisme
exercices
1768
##chwitz
##alet
hey
constitues
nicar
##iation
signalisation
somm
berceau
fragile
embry
westphalie
chats
thematiques
edifie
croyances
chaude
##iade
toc
eloge
##ticiens
alen
conclusions
pardon
allegro
eddy
fum
resurrection
diffus
toponymes
jamaique
##point
semblables
mh
owen
enferme
utrecht
sensation
redes
brus
apollo
tcher
taur
insist
ricardo
pourcentage
reussir
arl
elan
giacomo
##uba
libanais
renee
##jk
drum
lancent
##quez
duncan
alber
seven
doigt
croiseurs
echantillon
parente
shog
multiplie
mutation
##ordi
1740
annoncer
##furt
glenn
mtv
drey
muscle
specific
inedite
churchill
drapeaux
jackie
veritablement
cesare
miti
enzy
trame
ef
chol
phillips
russo
clips
diab
approbation
##acon
##aeus
zomb
chand
repri
##neuf
fondatrice
reveler
echantillons
illusion
sanc
sahara
bresse
##oller
autorisee
isolee
##gret
roh
injection
##tem
##ominal
##icienne
##led
##??
comediens
krie
saguen
pelerins
cool
zab
saguenay
bœuf
##inda
bancaire
duval
##tieux
recipro
laut
##rines
stephan
##roen
professeure
yuan
##alon
conti
defensif
pts
antonin
revoir
##enna
##anski
cb
molecule
villers
##oker
parachu
yah
monica
maitris
dignite
richmond
radicale
clien
createurs
dusseldorf
platre
##rador
tronc
fluide
gala
diete
1781
parodie
roose
miniat
realisme
##aun
olig
menent
tendre
##pr
1779
annulation
caill
repondu
beg
consistant
tenus
falaise
composante
years
kara
peines
bloque
##sto
foulee
multiple
augmentee
##ez
##oris
instaure
lances
jonas
##conn
paires
solaires
negociation
regulieres
tourb
gai
croisee
decoll
coutume
souten
nd
amours
allegor
exhaustive
lili
etrus
##kova
database
domenico
jamie
isolement
bijoux
jure
consensus
when
larti
elar
##hao
barreau
centrafric
tournai
cargo
camerounais
dante
protecteur
##ilis
annulee
subord
directions
derouler
}}
padoue
defendu
repandue
ecuyer
sullivan
cold
montgom
fausses
colmar
domingue
comparable
denver
biz
grain
chapel
crues
fecon
westminster
wai
##iden
loges
remplir
expertise
slovene
signifier
betty
bosn
##redo
sahel
ext
designes
ouragan
abbes
vaincre
sug
volontairement
fanny
##quaient
##iteurs
##ologistes
##quo
chauffage
madison
adaptes
stip
enthousiasme
mech
##avent
##opter
represailles
narbonne
cron
##ally
##ibition
conclure
interruption
soutiennent
tambour
fraude
fratern
##unk
bif
uranium
resiste
annuellement
cetait
orientee
##monde
balzac
reconstruire
pratiquant
enro
bretons
unanimite
faunistique
œuf
nuremberg
prologue
##ays
##icul
telechargement
bia
estimation
martha
concord
petition
reconciliation
notation
weimar
orale
affection
##vants
joign
anast
bastia
sarc
sollic
coffret
engagees
folle
##idon
memph
burton
vocal
##video
enveloppe
##oid
##race
pey
trig
donnait
build
lill
hod
##ogramme
disputent
huis
rechauffement
husse
yi
yougoslave
dettes
organisateur
recette
identifies
##umann
bavar
lampe
##anton
cardinaux
laffont
fish
boisson
enrico
jumeaux
assy
xen
visages
rodolphe
madem
rif
##elo
bourgmestre
typiquement
rehabilitation
##kon
robes
grammy
crus
modalites
##anisme
##hers
egyptiens
paille
##gau
trompette
mile
’«
##issage
affran
sere
murder
parfum
canadiennes
extremites
inattend
true
torpilles
##leton
profitant
lopposition
##jer
masc
charb
suivis
##nas
##kowski
##ogs
contemporaines
maya
stress
arrangements
rituel
tripoli
divertissement
fiscal
##augh
edmund
enfuit
australian
raids
navette
adverse
flamande
grasset
peripherie
tintin
mia
##rave
meteorologiques
crainte
##ctees
gasc
ft
relever
aerone
hebergement
ley
##agere
manitoba
developpant
1200
derivee
conventions
alonso
pepin
vec
conve
contreforts
mademoiselle
portable
montauban
cz
##pc
##kw
boire
edo
##opoli
varient
perdant
evangelique
lans
aris
auberge
veux
693
intellectuel
ethniques
classics
1771
1766
zw
proposees
aoste
##bow
savant
publicitaire
operas
sales
martel
tombent
1773
##berry
boites
citroen
##aus
pup
homogene
rer
gaspard
regg
”,
archid
;"|
locomo
livree
buch
comedies
simpl
##bvre
cabine
disciples
installees
cuirasse
##atu
wan
theo
cod
240
make
nis
##coni
imposent
wimble
hap
mafia
##auld
plen
mane
mineraux
elysees
vecut
rochers
meres
lunion
radicaux
jol
##jiang
##tings
diamond
calcaires
representees
##uda
prosperite
lannee
abondante
nanterre
titulaires
supprimee
##itas
limitrophe
##vil
##actique
hort
devront
arkansas
obse
##lament
realiste
gallica
abondance
##hima
aumon
sauter
litres
wimbledon
location
continents
diner
restreint
zeit
lapin
mey
##master
kiel
aviv
federico
grandement
capturer
occupes
nevada
##rero
##otheque
prophete
##arisme
papillons
##adian
juvent
minimale
depouille
poursuites
lj
ingre
homosexualite
curs
##drey
##issaient
tanzanie
admira
providence
baltique
##pas
ander
confection
lighth
concoit
carpent
##cey
spectaculaire
commemorative
precurseur
##phere
autoc
rg
sass
torpille
retic
morning
pharmace
suffisante
##oues
electrons
##mitage
tombee
oms
1765
ship
tc
poles
gouvernementales
lay
desord
recuperation
lars
##dings
valoir
demante
barn
flammes
##ylie
mineral
burn
masson
arbustive
1755
orthographe
gut
guido
##wel
silic
##cini
##riam
##tingen
florian
etangs
penale
##su
crash
##wall
tailles
stanford
bast
etroit
fff
roosevelt
diasp
conservant
india
gervais
commander
rolling
declara
weiss
empreinte
procession
tog
combustion
control
respirat
lom
goe
coffre
edge
combin
melanie
massifs
melodies
piotr
##amar
retrospective
##reau
becker
captures
conservent
bienheure
myr
pyramides
lancees
septentrionale
phal
exacte
villageois
rhetorique
##oco
contrer
1756
concurrent
sulp
verticale
##anos
##erto
alej
mesopot
preciser
inspection
independamment
yale
quelconque
minorites
gaud
vern
campan
##lev
distincts
hostile
soigner
beta
seren
edmont
f1
##cion
pretexte
deva
vital
1769
hughes
porsche
debouche
1767
survivant
ottomans
lycees
prussien
oxyd
originellement
transactions
miz
detailles
tantot
##tista
revis
absorbe
algeriens
valois
deliber
herz
permettrait
##west
mentale
lateral
muhammad
operationnel
attestee
##urst
cabaret
executive
margin
##wyn
discrimination
lache
colette
##alisent
souhaitait
winds
ingrid
pec
fantomes
pseudoscorpions
##xyde
perc
adjectif
##odique
bague
disse
alliees
palestinien
lucratif
hide
sexualite
retrace
horse
fortifiee
susceptible
shot
centimetres
surpris
sexuels
schleswig
gag
gron
flex
grenier
tourelle
1762
martiaux
refere
malien
zhu
comble
troy
auschwitz
ferree
preference
eye
parlee
vertus
pir
reliee
tribut
ouganda
pensait
fontainebleau
theses
##qi
##orps
##48
##uls
gert
lente
mep
mercier
##fficient
##fred
maries
impliques
diplomee
sceaux
ruban
##pierre
vikings
bareme
frequences
##tas
trust
toiture
elephant
deposer
treizieme
illustree
handb
##ottes
devi
files
destroyer
beni
4e
hok
save
representait
occasions
tropicales
guerin
andres
lanterne
scission
shan
formellement
formats
brom
garage
maman
coefficient
##wau
##ophilie
facultes
scorpions
stor
vanessa
avanc
darwin
allonge
five
cherchant
continua
ahmad
satisfait
descrip
valu
orge
extraterres
fonctionnalites
cgt
surveiller
ouvertures
comes
millenaire
fiscaux
regarder
##ads
balance
##osaurus
##plement
zagreb
vaug
permanentes
schwarz
enregistrees
ephemere
##uisait
jenny
##iformes
hispan
hiro
##onniere
##33
zak
advance
##astern
diet
decisif
gautier
declarer
refusant
deposee
##uiss
fatigue
occupait
mets
dumont
defensive
fourr
multiplication
##igen
bombardier
gerant
degen
pivot
powell
incer
regie
couronnement
ecclesiastiques
##rases
##law
philosophes
serra
##athlete
round
descendre
dolby
epi
fauteuil
demo
solenne
rechercher
##beck
depassant
sagesse
tos
prussienne
caucase
divor
lasse
adjo
hospit
nus
odys
manieres
accroitre
##roux
ascendance
delhi
yoko
jude
reparations
volcanique
joueuses
mythique
essentielle
appuyer
bouddhiste
##chem
monarque
maus
##bridge
executes
apollon
aquatiques
admission
sto
##anou
##umine
irrig
bouleverse
israeliens
necropole
soumettre
donation
montreuil
##uriers
luk
chaussures
cornel
pretendant
{{
vector
faiblesse
gigantes
##osent
refuser
negocie
reynolds
ell
##game
butte
polyval
remontant
detat
tuant
donnera
acrob
lesp
princeton
repandu
juger
asy
theodor
thie
quotidiens
locomotive
##zt
flott
##tyque
pacha
beziers
##water
reprodu
##rigo
utiles
mani
dji
leonardo
##irait
torres
sabl
##abo
confere
moleculaire
transparence
scandin
soumission
reunies
carrosserie
convainc
vincennes
rsssf
ola
lily
nette
##ranger
turbo
mouton
devo
ombres
##rc
pond
##oyant
luz
pilotage
hour
rites
marra
panameric
memphis
communisme
##ayo
start
hof
##imir
emotions
##afa
danseurs
apercoit
##outch
entourant
davoir
audiences
intendant
magistrats
malt
bmw
##asis
axel
manœuvres
refra
personnellement
commando
edmonton
reman
##erium
palm
germaine
##ueuses
gaet
reptiles
theatrale
lande
amanda
grossesse
(...)
##ologia
interactive
##jevo
maqu
civilisations
frapper
jets
patine
tchecoslovaque
paradox
montmorency
1720
rebecca
asia
cameras
kenny
minsk
##lava
##gnant
bouteille
montmartre
marcher
##ontaine
##ifere
incluse
1757
##odynamique
liz
arctique
luce
##rey
prefector
lapp
assume
traduits
##gents
stefano
##iendront
quitta
coordin
chester
expliquant
offices
daily
eliminee
milwau
1753
coteaux
monopole
acceleration
xiie
##28
##ely
##raz
dupuis
phon
captivite
vinci
achever
singulier
converti
mother
cadets
engins
##litz
intermod
complets
euc
encourager
pless
fouille
pamp
recurrent
tester
aubin
verone
terti
farine
idi
calculs
metropolitan
vander
vache
stream
grun
capuc
frequents
porteurs
laiti
aa
vaux
partiel
coreens
wet
chilien
developpees
##h00
andes
calibre
pue
cars
filtre
giraud
1764
##stache
milwaukee
##ор
estuaire
northern
##ells
aleksand
fume
engel
aeriens
marquees
brillante
##dun
tonner
menacee
emprisonnement
##deau
dalle
joao
triste
##hias
cag
1759
reacteurs
hampshire
syndicaliste
erich
subvention
##olome
heidelberg
##mblement
defe
##nase
commissaires
saute
libertaire
nomencl
##bru
emmy
televisions
citoyennete
arom
##gis
colore
##umin
amnes
reelles
##very
motors
children
bing
auth
azote
teneur
carthage
applic
revelations
salam
docum
contestation
banks
routiers
##tan
##на
thal
transvers
nourriss
##kn
credi
regina
effectuent
evoquer
eco
attribuees
decorateur
ressource
##26
wald
recoltes
ez
javier
lenine
flamme
resultant
riga
use
vivante
equilib
lits
##yin
certification
gin
americano
leone
historic
appartenu
faucon
magnif
flamb
biblique
zig
integres
bamako
##tage
caisses
messi
wies
##eland
##mani
originel
##kou
prepond
electeur
conservatrice
gom
reputee
christie
franchit
sandra
body
gestionnaire
121
evalue
##atier
walk
visa
##lane
nem
feminins
evoquent
##kol
vallon
folklor
##otiques
canadian
vivaient
dissi
broch
lorgan
ghetto
antennes
##iorite
pouces
medicament
precedant
--||
cataly
ressortiss
conquer
aleatoire
clientele
devin
##play
there
tropical
passerelle
peinte
paz
fuj
hirs
depens
vendues
clef
imb
experimentale
money
politiquement
accessoires
dreyfus
##nos
##aida
##wana
irish
tgv
correctement
odeur
comportait
lorrain
papou
lice
ramp
reper
repete
##eler
animatrice
adieu
agri
introduire
presentateur
pensees
dae
##itanie
vulgar
chav
terro
ald
tireur
##fare
conduisant
enfuir
dinosaures
ingredi
clandestin
novi
famine
fournier
luna
collaborations
##erien
##metique
guang
progresse
discuter
mercenaires
haus
fabricants
philips
lepidopteres
debris
##hiro
abdom
misere
culmine
panique
commanderie
hebra
barons
coutumes
##obi
lucky
slogan
wing
chloe
demissionner
guet
virage
dubai
aubert
##nar
jordanie
prelude
iranienne
##male
subsp
castell
choice
poil
panorama
anse
degra
montgomery
pearl
secheresse
##eli
##ophyll
fiancee
couteau
##itudes
regimes
collectivite
salzbourg
##othee
cartographie
intentions
##aci
%|
duf
dw
cath
humaniste
stoc
equat
selle
koz
coco
kis
##eles
viole
ronge
##castle
compression
cadette
tubercul
inspires
##uira
gendre
late
cartier
protectorat
twe
##ainville
touss
##rez
##ields
karim
chomeurs
wak
maure
##lois
finn
efficaces
sieur
normands
mediane
fuji
francophonie
predom
recycl
armenienne
contract
##iard
doug
preter
teatro
##urrence
arp
assistante
anglophone
verra
##estres
alma
apocalypse
passait
renforcee
couloir
refroidissement
##muse
##dius
dart
hoch
gauthier
##atha
neiges
inferieures
adele
gle
recl
extremes
brigades
socle
nen
amendement
liti
explose
revoltes
mercury
lara
##mare
cubain
fondamentaux
chag
liby
##ungs
dollar
cambrai
jefferson
##tius
jouees
eden
tardif
fines
playoff
alimenter
sharon
##cius
##atise
tolerance
##mith
xviii
1660
sparta
pairie
notions
doul
daniele
negociant
veterinaire
kyle
##kun
craw
existantes
cim
##oureuse
fumee
mediev
nicola
politicien
wellington
chasser
salt
observee
##itsch
catcheur
fondamental
fior
multime
caroling
luft
ameliorations
niche
federations
##cula
meckle
fontenay
mediation
seme
gueules
fleury
souhaitant
remontee
decrivant
scal
saisir
##oriques
metabol
##liche
nettoy
railroad
mysteres
##fica
wade
supers
inondation
peindre
detruites
##antha
surmontee
claudio
souvient
dependent
allon
##clair
##seebo
acquit
ajaccio
decisives
tremp
##kees
algues
opposee
concevoir
enrique
handballe
pathe
effective
plantations
##oia
##oret
cardi
transc
creux
pard
necessitant
islandais
remercie
1730
handica
fallu
fonciere
communautaires
cassation
croyance
sourire
lumineux
pedagogue
quoique
kod
##gren
cuve
1761
gymnase
brute
proclamation
bric
arriva
xiiie
chromos
##bir
prairie
##tiel
mt
"),
##tration
##ueur
balne
gaze
ensuit
recurrents
prisons
mousse
##mitisme
##tik
angels
calcio
atmospherique
oy
barth
collectives
amira
##hra
presqu
theory
airbus
episcopal
boll
kak
##lim
xive
tabl
##fal
##hoe
bradley
##rd
##sec
job
randy
elliott
##99
camping
tremblement
cadeau
##buch
yvonne
enqueteurs
andalousie
bouss
geree
sien
crow
interdis
porti
##outh
guardi
doub
edifiee
aran
olivia
unterseebo
equestre
##xon
newman
sauce
bruins
soutenant
zer
1650
scher
##atta
barra
thiers
have
rush
kov
##200
sno
##chenko
definies
##jonction
appliquees
iconographie
lavoir
step
##bia
beaul
omer
falcon
claudia
connor
economies
contribuent
##inos
rosse
vittorio
compilations
monumentale
reglementaire
##folk
##hus
humbert
tiree
academiques
##ustes
bancs
vertes
##lys
tahiti
eclipse
transferes
zoe
deuil
instrumental
auch
defenses
visibilite
##ih
sagit
courbes
lenti
##ellent
##otto
savoy
inclure
monoplace
##tination
##ritz
vtt
retablissement
gond
audiovisuel
guar
seman
paroi
toxiques
honduras
bnf
sider
embauche
##enseur
luttes
##rate
utilisait
jiang
shadow
publient
comparee
autonomes
portees
alternatives
choregraphe
lefebvre
persan
determinee
kaiser
autop
mosaique
mozambique
##dirent
finlandaise
islamistes
regret
voisinage
vaudeville
!!
macdonald
neill
depourv
##owo
##mag
remarques
##sche
teresa
approches
rempli
bella
somalie
##chimie
potentiellement
repub
promulgue
latitude
##ер
cylind
##yar
claud
sentir
vom
argente
ulrich
fameuse
##artz
hitch
alba
ambitions
##pez
ariane
vœ
repartir
##ety
investiture
judet
drole
lunettes
penetrer
dissid
polar
##fast
lest
persuade
uss
indiff
rude
brooks
##rze
confirmation
dominicaine
inconven
halter
##ansk
epopee
analys
cid
##pait
philosophiques
maxi
bb
kag
offensif
eph
orage
##teil
craint
hindou
stella
##lez
biss
close
ornee
legitimite
gymnaste
lexp
adjud
griffith
constantine
sets
##mil
predateurs
empereurs
skip
vegetale
cretace
alejandro
danc
##agone
##odore
boyer
boulanger
##erty
##cton
organiques
estampes
interdire
subsistent
marquise
nim
wah
australiens
imagination
cort
prostitution
devon
coherence
levis
marionne
##continent
sacri
hed
consecutifs
warriors
bosnien
mail
successeurs
gibral
assurances
stell
albi
violation
##jah
obstacle
davies
encyclopedia
simulation
famil
och
##urait
rats
mauritanie
plum
conduisent
kingdom
metropolitain
ludovic
").
charpentier
giv
sieg
ministeres
montfort
faction
##hoff
lynn
gascogne
##vins
adress
inflation
jing
abbatiale
fermees
crypte
##nen
##cdo
prelat
esther
blond
initiales
songe
teen
sepulture
cachee
burkin
elev
yoshi
succedant
aigue
##utnant
gibraltar
##uni
recevant
##dim
superman
berber
gibson
md
ambitieux
##kovic
soy
##iman
sacha
danielle
##lett
goet
raccour
sombres
##nick
coequipiers
cube
drou
stig
conjoint
mahm
occurrence
ciment
jeffrey
sapp
tonnerre
cire
eleon
rallyes
subventions
prochaines
tchequie
vœux
pich
herschel
dz
detes
rak
marquent
turn
savants
dependait
rattachement
eruption
baden
siff
scorpion
diaspora
pise
facture
funk
##tenberg
doree
plaide
jakob
auster
##dion
lr
adour
integralement
##minee
linguiste
230
descar
entretenir
ryu
feld
cuite
1754
##bank
repousser
interdits
dictionary
primes
montbel
minerai
stele
nbc
##ahan
achar
existants
privilege
##esh
##astres
horlog
couverts
philanth
reflete
rembour
permission
mediathe
remake
courir
cantonales
##ctus
mao
emprise
dorothy
heurte
bordel
##quets
patur
##27
boom
ferait
tenebres
octro
desservant
hawks
gisements
vegetales
odile
tower
leuc
##asy
clown
achevement
typiques
ug
less
laver
theater
vidal
nees
schon
tarbes
camus
alliances
relancer
regroupees
remorque
cassel
positifs
##night
regrette
##utant
juven
centree
demeurent
combustible
##nec
cob
etablies
##pel
##iblement
##dation
##rica
gus
##aven
##asco
rivaux
##acer
ellis
muni
nerveux
heinz
desquels
muss
suffisant
contacte
##khov
slaves
bours
##tiz
##jac
clerc
souterraine
-.
millier
antagon
utilisations
kingston
earl
lier
bail
boutiques
survenue
yannick
gim
indianapolis
tromb
##gets
dole
karls
relies
cox
mecklembourg
##entre
renvoye
reson
##olite
selig
saxon
revelent
leningrad
reproduire
kul
##iders
robots
##iensis
nicaragua
ive
##gir
cheminee
disqual
emir
chauve
sterling
##hab
nico
##64
mart
1640
##aign
##ramer
visuel
autoroutes
blocus
metrique
merites
kri
ort
habile
gagnent
electromagne
naitre
girond
ferra
incroyable
intestin
intermodalite
sacra
juventus
triangulaire
transat
declasse
localise
plateformes
somer
determinant
##viques
##nau
conquis
grades
travailla
moussa
seches
abro
telephonique
##yc
explications
totalise
detecter
fracture
physiologie
dependances
lins
syndicale
innovations
anecdo
vitre
db
animales
##mone
miranda
##ouvez
agrege
abritant
buteurs
vampires
##yday
hussein
algeb
antisemitisme
gravitation
examens
fraternite
##ommer
linguistiques
friends
labrador
1748
##zek
durent
thomson
consulter
frappes
##ievitch
##nett
eine
dow
##omac
##quement
recueilli
injus
devenues
cliniques
polynesie
pana
fors
constituees
##55
##uier
agissant
oratoire
trond
soumet
fournissent
ln
slave
spl
##icide
skieur
morel
evil
dominee
harpe
enseignante
##alisee
cinematographiques
imprimeur
dangereuse
##ampe
##arian
laterale
pouvez
milton
etroites
peints
janet
gastronomie
evreux
semblait
norfolk
investir
excellente
##cessions
##colo
affirmation
fia
guerilla
batir
##iza
gestes
zah
directoire
tresors
##pei
sten
certitude
evident
##tels
canyon
latino
lords
norbert
##jor
animes
fee
schul
educatif
separent
georgien
vigil
directs
kry
consec
geographe
brive
modernite
annuelles
epais
oubli
##blanc
teinte
larmes
segments
interesser
nazaire
motive
##ocket
##pur
luminosite
muscles
detente
bloom
insigne
reportages
etendant
appelant
psychologue
consorti
trembl
variees
##rill
##udo
tige
physiquement
jagu
posterieure
perdues
varier
provisoirement
bielorusse
insertion
lola
##utiques
##teaux
gong
##iae
yak
insou
##ocrate
convergence
graz
embran
winni
mahomet
##endorf
delais
indications
##oving
##hat
taxinomie
hongkong
stol
houten
boucles
orsay
apl
##agny
capitaux
210
ratio
seth
##mentaire
1751
melee
linn
mental
harcelement
solitude
##ensee
willem
pieter
implantee
renove
cigare
playoffs
hue
elbe
##baum
cinemas
##igueux
restruct
ruiz
considerait
macro
nautiques
satisfaction
joindre
thou
perigueux
walsh
succedent
sobre
devil
##38
subissent
nomenclature
tramways
urbanisation
fournisseur
richardson
analyser
aise
eugenie
suzuki
study
hung
acronyme
milite
constater
debuter
slee
corpor
thorn
reconnaiss
administrations
##lemment
wii
pedagogie
faille
albre
integrant
##chten
##olore
conson
##ronne
squash
violemment
dn
##gone
##hart
##yb
sculpteurs
presentait
erd
better
petrolier
fest
criterium
##uo
##arit
revint
manipulation
accomplir
##rudence
##got
audrey
##anta
preven
##tro
sonic
saill
android
cornou
vincenzo
ilot
enlever
honda
hernandez
positives
emetteur
##ex
italo
yorkshire
##schild
contreparti
traduite
finition
publicitaires
##fff
.:
collater
##ovan
philharmonique
tian
compie
chart
commandants
presidee
affichage
talibans
serres
sarag
bilingue
julio
compatible
cursus
##ids
glaces
patin
zon
voice
##anz
750
ichi
##auville
concede
melanges
jav
##uin
requete
##oslav
escale
##cit
otage
##anson
##ded
decrits
phonetique
preval
primitive
winnipeg
absorption
signent
grenad
##ping
##ould
embus
martyre
fabre
chaise
orgues
##decouver
reveil
drake
peripherique
##ии
##azione
gunther
pine
parcourt
dangereuses
##ious
##cium
windsor
plessis
</
enj
predecesseurs
perpe
actives
sire
liberee
oceans
##inas
emmanuelle
burkinabe
exode
approfond
dax
chalons
decompose
##kre
vase
emiss
##fie
ministeriel
lachaise
definis
pontificale
triathlon
##niche
compensation
foie
kour
horaires
peril
triomph
.»
##laz
underground
prer
porcel
confluent
soissons
tup
impacts
silenc
##romes
interessantes
newcastle
normande
guitar
xin
marce
raconter
alexe
##quisition
kowe
##iture
survient
systems
##ked
henn
richesses
aja
etablissant
##hold
bemol
food
qi
##akis
jurisp
##opodes
##dev
minier
soliste
##anor
poussiere
consecration
datation
cordon
satisfaire
lorganisation
wiel
nouvelliste
murat
chatelet
##anum
chase
pedagog
crucifix
##fte
baf
mena
mysterieuse
charpente
formules
##racuse
ket
##d3
historienne
##chu
##rock
(-)
moutons
aoc
##inales
omnis
embleme
precises
ajoutes
buisson
usagers
ameriques
monumental
##idee
fronton
##islav
skin
noix
eleveurs
##iosite
syracuse
valorisation
##horn
##bf
prieres
pratiquee
selective
traversent
lynch
cœurs
attendent
wur
##ibi
serieusement
##aver
algebre
opportunite
heaven
puc
zor
bp
commet
##entiaire
honorable
hopkins
realisent
choregraphie
immigrants
ranger
##stant
durs
londonien
majeste
laby
manifes
nt
winston
!)
lna
##</
viz
occupants
arron
sherman
afc
git
##ultures
explicitement
descartes
##uche
horaire
bakou
pter
foudre
xxx
assiege
##olid
equipages
hautbois
baude
discrimin
nino
paquet
rigueur
sceau
arrivees
##ska
pulmon
vega
mika
refusa
mythes
penetre
marteau
biologiste
zimmer
toussaint
chauds
comt
unicode
##ibal
polych
protestation
clun
investigation
compiegne
acceptee
reservoirs
ecuries
chad
douleurs
atteints
avortement
peron
meconn
dl
°.
##nic
poils
souv
defis
herbes
1715
##bao
##jana
mein
aqueduc
hog
keller
-?
laurenti
avois
chasses
baye
publicites
instauration
elig
protestantisme
plancher
##kl
bouill
abreviation
derek
tampa
##anas
calder
identifiant
aristocratie
vernon
yellow
##rem
odes
paula
calvaire
vocale
topographie
##nus
pointes
a1
##bard
andrews
restants
emigration
veron
escar
##ressement
size
retran
chain
caud
concessions
samour
messager
kazan
papouasie
rejetee
esch
directives
affaib
drama
chevau
reunissent
colbert
colombe
indeter
ogives
glass
corneille
distinguent
compact
fermier
enormement
medioc
sedan
nostal
bundesliga
adventure
nine
##inga
##uga
embarc
swan
baudouin
subdivisions
meurent
leeds
##arta
toyota
alfredo
accordeon
excepte
hereditaire
°,
##icester
##resseur
complicite
roumains
adventures
##amus
##mpe
elysee
quels
##iante
dul
reconnues
filippo
##opus
poignee
accroissement
##49
recr
indicateurs
paramount
mell
bei
tara
falls
##vius
##gestion
geometrique
precep
dialectes
##icum
superfic
ashley
caste
##tree
effig
palazzo
eteinte
animations
cumule
antiquites
##agerie
mathias
havane
beaulieu
consortium
fog
##hey
hospitaliers
narc
deuxiemes
##atory
cavites
khl
soirees
manu
episcopale
##conomie
convois
tranquille
chard
filiales
incorporee
diag
tuberculose
chip
distill
musica
fune
##ridae
savait
echou
precau
ose
early
ouzbek
breme
##ossa
dinamo
comparti
touraine
brent
giants
imagerie
temporaires
fortifie
dabord
sally
nois
##itait
affilie
##ckland
christiane
milices
##wing
maril
thy
bub
multitude
singes
entrepreneurs
betes
##orien
sortira
diffusees
poing
laos
assimil
navales
portefeuille
saragosse
barbier
anglophones
decollage
theophile
homo
moreno
##kok
aboutir
robertson
mitrailleuses
reperes
critere
supermar
aquatique
marthe
adver
1741
horace
kahn
futs
silho
jete
feront
nipp
tales
deteri
anob
touchant
biar
circuler
joey
1630
intui
lozere
aisement
ende
ermitage
kah
ambassadeurs
desaffe
merid
joli
evoluent
dum
reveille
rocheux
alliee
poesies
##29
##ovski
processeur
junte
elsa
bienf
mixage
blindes
##matie
...,
phant
octog
1745
allege
mortier
hate
tille
##risme
carole
chaussees
detourne
##isto
##ikon
velos
inaugur
##riste
vinyle
lactee
##uridae
cadi
pavel
elimines
beurre
labyr
peace
fif
parus
alfa
garros
boissons
dalai
fasciste
mori
potentiels
hannah
##weight
emblematiques
brandon
bish
spiel
heat
reagir
immort
1680
##leen
conven
buzz
##ła
ukrainiens
hs
##lik
leicester
ammon
apparaissant
talk
grass
retombe
1300
souffrant
honorifique
matteo
sulpice
dino
icone
barbares
adequ
mue
its
elise
regen
nievre
arrangement
flav
membrane
unie
hache
affectes
denominations
immac
saisie
lc
irving
forcee
tortue
##loise
sodium
universe
##mpan
legeres
psg
banniere
malgache
mediatheque
venaient
reddition
dechar
meun
##olier
niss
bastion
##enzie
bots
##vante
oxyde
violentes
burundi
castres
fluct
lho
codex
fictif
helice
faisceau
hello
tiger
bombardiers
##chis
submer
##rement
##ators
historical
namibie
relaye
neutralite
chere
rebaptisee
##zione
combien
##fore
##ruc
informer
hymen
templiers
saxons
bayern
metaphysique
lutteur
##kovski
portuaire
##light
transaction
liturgie
mw
##erente
redevient
angelique
bant
##kech
quadru
innocence
etais
recus
battus
recouverte
cohab
engin
attachee
##agraph
drogues
comete
interviews
souterraines
##enas
retrouva
1670
##amura
invasions
eds
richards
respectifs
tus
hemisphere
puissantes
fleet
intron
snc
floyd
osi
sentiers
rumeur
##arine
surv
envisager
coleopteres
##vettes
basketball
gd
##ociation
planif
immigres
nieu
associer
crystal
reichs
calle
parap
gant
split
corrige
instituts
cuisson
equitation
apotres
cg
actionnaire
ordinaires
5000
percy
recueille
##43
nept
declarent
homer
next
bayard
##vion
parvenu
##sberg
soutiens
paie
ish
campo
morrison
mepris
foix
##hama
localisee
##tilites
hyac
recueillir
expliquent
fraser
lucius
occul
##obil
circule
problematique
coude
unifie
escaliers
conquerir
examine
tons
shen
##ан
revenant
masculins
montbeliard
##ischer
liberes
fusillade
paran
limited
duck
accrue
valentine
technicien
fees
guild
bucher
assigne
##ainement
auckland
##idad
rappellent
bowie
hr
rik
##umee
##yama
##86
instituteur
agrandissement
defauts
coecrit
##sters
peches
coiff
##onger
recensements
employeur
cadavre
sunn
aviateur
ct
installa
reglements
berbere
works
boue
##info
lanceurs
##brooke
souligner
lennon
avances
abstention
cornelis
cables
ene
basile
inconnus
primitif
lae
deplore
##ол
##czy
##75
travel
unitaire
sete
visions
mutations
joshua
universi
merlin
genetiques
taureau
developpements
capitalisme
hare
latins
gisement
vendeur
##pation
selectionnee
chateaur
souffrance
ama
england
yor
popular
comptabil
thuringe
receveur
antioche
huguen
rubrique
exporte
mors
execut
perpend
ols
##],
quest
mone
modestes
kurdes
contrepartie
tati
connaissait
attaches
energy
nc
viking
clube
##cieux
manifester
##gnies
multimedia
echi
multiplient
v8
##jm
engagent
beneficiant
poussent
##aliment
contraign
matinee
pelouse
half
wake
trist
malad
singe
byzantins
atari
ambroise
combattu
1752
impressionn
##richt
limitees
anterieur
perret
prototypes
corrid
ala
clou
rouv
phylogene
eagles
yards
##face
lonu
room
michelin
dater
sabine
prades
adju
delin
renouvelee
leigh
carey
reconstitution
binaire
##tores
joyce
benevoles
hypothe
intercommunal
##halt
analytique
##lux
spy
dangers
thessal
##oel
provinciales
surin
##gale
geologiques
paysagiste
galle
ions
musik
1648
sismicite
##romet
##elley
acceptent
bilater
5e
quun
folio
regards
synta
presbytere
jp
villefran
niort
venues
fouc
prehistorique
gland
pige
maternel
qua
##ariats
131
imposee
romano
pitt
reduits
divinites
fiss
phyll
isoles
usees
cosa
kars
conscient
civique
woods
##kus
##osant
glou
alignement
anes
oakland
priori
indiennes
##illis
morvan
ecrivant
nigerian
psychiatre
poire
veine
vere
armeniens
evacuer
particularites
##liger
##carb
##cir
##uleuse
relevent
trot
##oriales
nazisme
##…)
australia
tarif
odeon
balis
ethan
circle
falaises
accelere
##orah
sacres
renouvelables
##cro
brazz
congolaise
oder
quinzieme
oster
##kia
ned
laon
##asia
inegalites
felipe
globes
stories
secul
##itives
envoya
pastorale
eyes
fleuves
geschichte
graff
gendarmes
trit
##ardes
hardcore
poign
##nova
##olon
vendome
1749
justesse
funeraires
##inese
##uges
baronnie
##sio
dider
helena
prone
##gat
proton
##phore
ancre
alsacien
##ralisation
##ubert
cauche
voulaient
comptable
##nin
##46
govern
erotique
annoncant
symetrie
##wor
pio
##quist
bouquet
butter
ricci
kids
exploitant
tank
fidji
zinc
eich
meurtrier
guin
kilometrique
refugier
desarme
##ophyllum
##uze
##ouilles
siv
reproduit
palma
consacrees
pecheur
caster
feminisme
sherlock
sarcoph
##mania
gregorien
##ced
##chou
superiorite
polit
bernhard
shogun
adherents
##enthal
##guins
spatiales
##seigneur
##hing
cotieres
biographies
valent
supervision
bouchard
facto
artere
typh
supposer
crom
bs
dmitri
allure
nashville
danser
##uten
canonique
pignon
nerv
symbolise
pieux
recepteurs
##maux
##yx
##omanes
lateraux
raja
prononcee
reggae
dolmen
##dn
##ahu
##metrique
marrakech
epave
destinations
raion
gile
erudit
perdit
implantes
recepteur
##oster
reouverture
sega
##aden
integrite
cone
track
vicente
chirurgicale
equipees
courtois
1747
dawn
reimp
atteintes
ruisseaux
320
1690
gestapo
geoffrey
##belle
##enco
##ipres
prevoyait
remplacees
jurgen
##liere
distributeur
##enb
rythmes
cognac
willie
tempera
blinde
dg
angois
usur
##wara
controleur
trimestre
lucia
vr
alencon
theoricien
relegues
xie
enchain
##ymes
ances
##ortivo
accompli
##agbo
nettoyage
##adan
patronage
adjointe
gli
inferieurs
##utta
perip
langages
jouera
definitions
1685
refait
carnet
##ushi
##issens
hew
essentiels
clans
##ivores
##laire
lymph
tiges
matthias
##derland
wir
emilio
//
##isi
jusquau
jurisprudence
pavillons
extensions
##oura
originalite
zhou
##orig
##mberland
immaterie
meneur
isabel
kore
yon
ensole
bergen
260
collectionne
avocate
dejeun
##ayashi
communales
spiders
tyrol
figurer
polaire
cadence
trade
abonnes
edic
software
schi
##ertes
adaptees
##udi
leves
pedi
ibm
mccart
jel
charle
investig
petroliere
##atia
brien
carit
gouvernemental
guillo
intelligent
##esnes
anecd
df
tuil
bouddha
horti
desquelles
wagons
prosp
##dification
##anza
##unda
##inne
seni
disparaissent
experimente
carto
vex
guiller
##formation
autun
exceptions
blum
vivement
##toria
##crite
continuant
##ggy
conan
finalistes
bornes
june
alfonso
dedies
preferent
only
devanc
maple
devol
expulse
presidentielles
dry
exposer
##culee
pics
explosifs
plantation
fillon
quelquefois
edf
hallyday
dynamo
trinity
rodez
chargees
jamaic
debou
##0e
rennais
reaff
culp
##36
dana
fellow
primordi
democratiques
bailey
hebdomadaires
coupole
##naient
ventil
archeologues
contenait
##ists
quarter
querelle
##ombra
visiteur
aria
satan
vla
rothschild
coquille
amelioree
cio
lept
##gerald
regrouper
athen
katherine
zac
vetement
rebond
parcourir
forcer
##tens
encycl
profess
goya
quinn
voil
eloigner
rameur
bt
accordent
##miques
##nements
allaient
1743
##rard
interrog
suspects
indigene
intercommunalites
burns
gamma
##mler
laureate
logan
corniche
cortege
henderson
effond
marchande
proportions
reparer
accelerer
officialise
mouche
dira
legrand
##tissements
quatorzieme
identit
lise
developpeurs
pamph
##gur
cheng
##abad
detenteur
tree
presume
baryton
##abes
penalty
nutrition
castor
secs
terminologie
brieuc
niel
##atas
enormes
treves
toxic
eun
savent
fournisseurs
islamiste
##acao
bilbao
rituels
passeport
prospere
aurore
##sty
##uca
gazette
ecritures
building
modules
maille
maintenue
favorite
toulousain
obtenues
sembler
beatif
malines
##aha
timothy
vides
rox
1550
greves
fund
nymph
fitzgerald
anecdotes
##ен
papy
colombier
phrases
penguins
holding
##phes
roz
strate
##series
changent
ks
##giques
##opidae
autobiographique
verser
reconnaissent
saisi
mollus
##fly
quen
##oplas
elvis
actrices
##ynn
1710
mills
vaccination
freedom
venetie
##ng
##cens
##chner
photographes
devotion
##rae
amants
##32
recenses
carolina
doren
fabriquee
##care
##erations
plaid
whis
##cze
reclament
assorti
tempo
incontour
delit
ال
205
1620
dieppe
tracy
##thel
biot
##ypique
blair
schl
alep
ressent
homosexuels
armure
wesley
parasite
bergerac
raul
clai
swing
##igine
neerlandaises
cauchemar
feministes
pelerin
burke
parvint
linne
eri
##ffy
fet
hp
boot
enqueter
sexes
lexique
rails
accroche
vrais
inscrites
blindee
agrandi
vais
toxique
perturbations
bise
renouvele
##lerie
##lian
confr
sonia
psyche
reposent
rideau
##onneur
cavite
)-
formelle
ressortissants
omnisports
besse
tud
apportent
reagit
##mot
fln
debarrasser
micha
##roscop
concepteur
berthe
contestee
authentique
##osque
ptole
gbagbo
huang
sylvia
paquebot
labe
prost
##kis
##enger
atoll
deplaces
gratu
alix
aden
reposant
##ilus
hib
saoud
sox
beh
maximal
franchi
crazy
correspondante
##anet
geopoli
fergus
insec
artists
bleues
massa
##wang
order
rights
##enheim
aimee
rassembles
peupl
versants
malais
engend
gloss
agos
elementaires
##cine
##pot
consentement
bercy
villefranche
ponce
ratp
rallier
bok
##ciee
incapacite
etonn
augusta
ios
satisfais
eastern
##geme
herac
haj
1746
##erons
sime
fusils
cec
##oiste
dispersion
geologue
conducteurs
##chettes
paradise
aline
##anciers
douces
variant
##cans
neue
##uku
violette
##assin
##ageres
jump
##aea
ninja
##anu
##ffier
##izu
js
achats
acti
##itsu
circulent
fiefs
souche
migrations
rassembl
prestigieuse
cov
where
prolonger
##phia
hautement
maggie
tunnels
detenue
##nius
disponibilite
echiquier
##44
pascale
curieux
diderot
pang
acadie
##ffield
##indra
ecoulement
repondant
mince
jouets
denys
examiner
implantees
promoteur
##illees
martini
environnementales
uniques
vecteurs
luciano
clause
want
epaules
maill
realisa
##atan
beaufort
280
vingtieme
plata
bauer
echelon
sorcieres
girondins
##stock
tournent
pari
muraille
tav
casimir
##wy
pornographique
##lecht
bibliothecaire
nommees
preoccupations
poker
coloniales
sieger
##itor
liberty
consoles
noah
illustrer
tt
##pine
stab
petain
##willer
deplacee
bouteilles
confondues
##jima
percep
hansen
assad
vih
institue
initiation
interviennent
gentle
##qa
paraissent
chorale
##enburg
forger
medal
elephants
upon
quo
disposes
bacon
clu
administrateurs
parcelles
bulgares
zenith
brin
##icon
##ratrice
signataires
flancs
schiz
drew
mclaren
##ompt
rhod
protester
frans
clarence
dissu
##tsch
cowboy
matricule
tyr
##gorod
##cueil
reussissent
kik
interd
patriotes
evolu
##estro
asper
finira
thon
ria
narration
storia
pictur
##entis
rassemblant
hoffmann
hyacinthe
inters
cerv
tina
abandonnes
mahmoud
cyt
couteux
rhum
eternel
voyait
decrets
genome
peuplement
contamination
voleur
restructuration
ape
fournissant
boulang
aspir
inspirant
##ар
noumea
nuis
ouen
1734
divises
feel
hostilite
pharaon
lue
flying
cof
unification
capitulation
thermes
##zh
sino
ecras
1610
larves
volum
##lina
operette
demarrage
tsh
##rana
##jal
decrites
simplicite
hebraique
##rap
##oulos
...),
stationnement
effectuant
minas
chah
vaches
decoupe
tuiles
melan
rediff
traversees
megalith
##orff
clare
battista
massivement
hitchcock
monroe
palomar
projete
enchante
biarritz
fous
jew
fleches
smack
rallie
groupements
chaumont
zwe
considerables
romande
##agna
digit
vest
harp
singh
##vac
jihadistes
rice
abeilles
!"
archer
reconnaissant
napolit
zum
retenus
brock
douan
invol
leyde
cyclistes
magicien
celebrites
avais
##igner
sophia
##orus
corromp
prevot
contemporary
agrement
serveurs
prirent
ignace
jaime
reprit
nij
jade
bear
asterix
ecluse
##bane
##veld
separant
xia
poc
##zu
inspira
dietrich
ecologiques
1744
##ptes
periodiques
zambie
gloucester
benn
bouton
##ος
##amas
deco
retabli
mentions
abriter
##dish
deborde
ampli
reverend
obel
luftwa
asser
elias
##jak
anterieurs
repli
begon
dotes
piles
yvan
valse
touchee
explic
coins
return
##lamee
too
ribe
tis
trouvees
diges
soixantaine
sediments
certifications
still
ecologiste
manuels
arrestations
annuels
celebree
brazzaville
seizieme
anthropologue
etale
canoe
camarade
irrigation
offran
vassal
insuffisance
qaida
##hme
bouc
compenser
##yna
entrainent
ngu
1742
confederes
verdict
view
waterloo
iberique
surplomb
cortes
souffert
cascades
quotidiennement
##ilio
ballade
tirailleurs
caution
montres
ingredients
envol
roussel
transylvanie
illegale
aumonier
##rude
##tio
amorti
techniciens
siens
retient
add
environnemental
decidee
uf
##rne
lartiste
gigantesque
filet
laique
malienne
chateauneuf
transferer
prefectoral
##onnette
dioceses
sejours
##azzi
tisser
##ggen
##crire
firmin
fang
##dot
retours
chantee
##uble
baronne
mosc
amorce
##mium
##borne
(=
cus
dard
##gey
locuteurs
repartie
dramatiques
bahia
delphine
heil
berline
vitrail
grin
renouveler
assaill
penalite
spot
venezuelien
elo
trevor
##rach
perth
retires
##opo
emancipation
elevent
link
ruraux
##01
promesses
mcdonald
convertis
aimait
gage
##77
exact
1739
signaler
##llo
schle
1400
cyan
rudi
dominicain
##ombre
montere
tik
terroir
##ushima
brevets
ceramiques
dorenavant
paw
renverser
consultatif
##ients
spele
depense
##san
##trage
##raska
commencement
bachelor
oman
impul
pli
anatole
141
museo
modifies
aq
ravel
brother
squelette
stag
voyelles
billancourt
corner
retiree
vus
renfort
refe
mireille
yong
bethune
jumelage
permanents
forestiers
vettel
discute
suggerent
annuler
aiguille
columbus
sarajevo
obses
importations
arbitrage
##ciplinaire
##rieu
limbourg
carpates
##ght
amplif
fonctionnelle
inhib
magiques
limitation
tentant
rachid
hivers
##hawks
suppleant
language
rattachements
recommandation
dunes
epin
creole
experimentation
gaillard
##iewicz
mefi
marocains
ske
retrouvees
lisse
gerhard
stricte
liturgique
einstein
##anning
facons
maxwell
tint
worm
hydrocarb
berges
bf
killer
arith
devils
accumule
wilder
##ellschaft
##eur
##br
##cta
abbesse
neocl
amenagee
astroph
progresser
capitole
escadrons
protestations
vermont
helices
glaciaire
psychiatrique
##─>
ankara
##hyn
radiodiff
##cider
suivit
plaza
larousse
koweit
1701
directes
lear
##grad
mausolee
emball
cadavres
fantaisie
echappee
fantastiques
grippe
obscur
+,
granit
1738
secretement
himal
nebraska
remarie
eup
implement
bw
imaginer
isolees
glad
rachetee
homosexuel
##ict
faith
attachement
theoriques
electorat
gottingen
krem
mud
hostilites
radiophonique
fours
notting
atome
eras
zoologie
confedere
groenland
effigie
merle
protagoniste
##arien
##onda
##endes
exploser
mccartney
##rances
melun
representaient
viticulture
bouillon
sik
debutant
doutes
bienvenue
##agin
moret
hamas
interrompu
hull
philibert
bruxell
1735
enclos
pouce
oscill
menuis
constituait
samson
medina
xe
oswald
horizontale
coy
visu
wave
scu
inflige
dand
rider
fabio
tow
correspondances
placent
loyaute
merci
dud
civiques
dopage
amnis
halles
catalane
##flot
##esi
perles
php
cristaux
hits
staff
metis
tarifs
even
##89
delicate
##gaud
##not
alm
##adores
creative
##dp
retenir
filiation
ecrou
lights
chateauroux
strange
verdi
waters
immin
induit
echanger
cuirasses
##hum
##ocle
lauren
poterie
##dah
pittores
pakistanais
witt
monastique
convertir
celibataire
fry
kost
haitien
bim
gm
libraire
professions
lames
caron
epinal
1707
eiffel
thessalonique
menu
recruter
spiritualite
pill
##isque
##alu
sah
monseigneur
manquer
ovale
equatoriale
jill
##enau
relache
##heng
##gano
carnets
remo
##icules
internautes
##alter
alz
sail
spd
hebert
bloch
significatif
sill
##vable
parasites
maitriser
cip
soutenus
gouvernorat
##lach
dedicace
oued
##enee
villas
##film
springfield
##acs
lei
simul
assou
verification
fondamentales
cliches
propulse
screen
2023
amphithe
##wagen
chartes
melant
symetrique
##erick
##ryn
labels
freddy
ressemblant
smackdown
minu
saurien
mechant
debutent
linterieur
##bins
antif
classer
eleonore
modelisation
##mette
florentin
perouse
andorre
affectee
celtic
multic
interrompue
sacris
##idor
graf
malaise
termina
accueillent
##erenc
operer
fondees
accumulation
redecouver
quick
reformee
##inges
samoa
##bron
numerotation
mayo
anderlecht
parl
ansel
amin
degli
approuvee
##mak
##quettes
##iday
reds
##cation
influent
##ocytes
diagon
abbas
labell
rompre
bari
self
linde
springs
##icole
opil
montfer
longueurs
scenaristes
chapman
repondent
budgetaire
##ved
bienheureux
##rein
cane
omega
therapeutique
creus
##orno
proportionnelle
coucher
champignon
1709
centrafricaine
baleine
estivale
##olaire
cardiff
##itiste
caches
imprimes
tsi
wiz
choisissent
prudence
capteurs
flic
caoutch
fiabilite
heureuse
inhum
decrivent
adressee
##uya
convo
goncourt
polemiques
kale
photograph
bray
positionnement
bolivar
conspiration
besson
celebrite
##mate
therapie
sherbrooke
attentes
fougeres
slim
gore
dour
agroaliment
aldo
heroes
lacroix
mortel
malef
##tila
##dieu
manquent
courantes
meditation
c1
gat
sabb
remaniement
gardant
##ouet
##riel
galilee
vacant
lol
lif
2024
bombay
participantes
desequil
legue
##ikov
melanc
rendait
goutte
provoquent
decomposition
##minees
unanime
ireland
visee
victorieux
carros
eventuel
dotation
brice
visent
andree
impr
galice
augsbourg
mentor
ecosystemes
requie
eduard
sms
1714
##marine
mineralog
##vili
anhalt
maures
requisition
##viere
sculptes
blocage
palmes
motocy
prie
##usee
rameau
seconds
accueillant
warwick
##ев
bian
instabilite
compostelle
severement
uly
robo
etendues
redemp
fondements
etou
predile
balcon
pedagogiques
##nds
##iculture
mettra
voltige
renom
d4
suivies
rochester
##dos
voirie
abbayes
rancon
occasionnellement
##mentee
separati
##roprie
vierges
rouleau
apports
formees
suspe
humb
##rification
##quante
psychiatrie
milano
locc
beauce
##chine
##andier
##ource
portaient
kro
silla
originelle
prag
appellations
tango
vœu
1737
amicale
poulet
##ocent
##izi
satirique
##uvres
helve
etudia
estonien
##lino
beverly
1713
claus
##isants
##lide
agisse
##ophiles
signant
##''
1727
##liano
##utsch
1725
devienne
##orment
##yad
dessiner
repartiss
foires
observes
employant
tardivement
hae
labour
sind
##enique
##chers
dictateur
##abar
health
impressionne
admiration
hoy
leib
stones
minne
couronnes
veiller
challenger
fugue
financierement
##rian
afgh
herm
##ottage
1733
soub
singer
##ffa
passager
preferant
preparatoire
canaries
contradict
christina
commencerent
ls
kirg
deverse
meaux
mouse
analogue
observees
horizons
proposa
inedites
kend
mariano
##ticite
violons
couvrent
odyssee
##mara
habituel
sheffield
kurde
cil
##gua
virtuel
mystery
##jol
debord
projections
pontifical
authenti
patrons
amiraute
epci
brescia
artef
dioxyde
##zie
##ober
puerto
guerison
cessez
lyceens
tanger
dera
laye
regroupent
##ysz
poursuivant
pesti
208
##allois
requiem
enrou
anarchistes
forbes
greene
bosch
private
##urin
tertiaire
ina
##isk
quune
verme
imam
patriarc
postal
rolland
hass
liquides
nogent
laug
##assant
decideurs
effra
1560
immorte
orthographie
quadrang
gund
samb
requin
##vistes
frein
emettre
emprunt
baptis
peux
venerable
zie
passions
absur
critiquee
contrebasse
generer
negatifs
1689
wong
pocket
stir
causee
volee
>.
bree
##jik
##omat
anoure
monteur
##marck
tendent
yvon
stupe
pyr
lumineuse
…),
bourget
panamericains
coloration
proper
##ifax
##anais
ceven
accompagnent
dejeuner
reid
marta
mathemati
vertebres
hydroelectrique
##apit
decour
ravi
##oult
floraison
prenait
crie
assassiner
entourent
soufre
arenes
bend
##pps
immunite
craignant
##pat
precisant
##otox
flora
bolche
stocks
telephones
##fou
carroll
celebrations
comptabilite
vases
mantoue
merveilleux
oasis
tbil
preston
interdisant
##zman
iner
denoncent
aerop
kind
##idan
##thal
##eneurs
chatell
medievales
pele
sacs
seligman
##dig
schol
dreux
suspendue
batis
identifiee
cultivees
planetaire
270
insecte
inquietude
##5e
malediction
##chat
##illus
deployes
rembours
joker
fermentation
fondement
crepus
renferme
##life
contente
provencal
kus
minuscule
##leigh
cases
palestinienne
fermiers
tate
##pit
mandch
shak
##conti
##pler
inj
predilection
animateurs
deroute
ding
##anon
##ionale
##artheid
tsun
demonstra
conduits
soumises
chargement
vegetal
mussolini
liss
##zine
##ylene
bruck
halifax
lakers
marxiste
mecene
np
semestre
##cheurs
deportivo
efface
heroique
commercant
crene
vaillant
konst
kand
rencontra
chaudes
pino
inevit
##dong
fraiche
catastrophes
crust
1636
uri
##zil
syriens
##lob
canc
cousins
pinyin
1688
##alisateur
oeuvre
coming
april
deblo
nadia
##ometrique
paragraph
##okie
procee
##ulo
murales
##ussen
##xit
1540
fighter
cluny
lena
accusee
biden
honte
vant
##ismatique
##kinson
creteil
##rington
##bey
irakien
resc
##miner
cosme
##umacher
gote
sart
photographiques
raisin
menacees
separement
bishop
##quage
caves
accidentellement
debuta
nouveautes
releves
calcium
infections
##angu
tenta
algorithmes
cais
dime
calife
##37
aci
wander
##ogy
scores
bernardo
thibault
##nelli
prehistoriques
preleve
controversee
lyonnaise
capitales
bogota
##itier
montagneux
babylon
##ielles
detresse
tuees
mongol
##rui
##camp
crawford
mute
##ergue
##amon
1736
cash
beaure
agrandie
conformite
bourses
considerations
environnementaux
augmentant
##ully
1661
##grave
calligraph
maast
schumacher
away
marecage
saumur
tolede
babylone
melissa
jacobs
alcal
##ligee
forever
extraire
surele
prize
contraints
fighting
4000
##abis
phy
eventail
cyclone
doses
erg
mongols
yes
geante
annuaire
##ymouth
miniatures
##88
inap
rocky
russ
ideologique
secretes
##obox
factions
cruci
propage
##icients
pitie
ouag
secte
reduisant
flores
basketteur
ferte
ciud
embranchement
immateriel
##orant
articule
deformation
terrasses
##ppa
##orb
malik
rode
lepoque
diamants
##jen
generalites
ulysse
##ucle
interven
ardenne
rhein
damp
elargissement
fmi
hasse
yok
’,
##lib
sorcier
baronnet
biographiques
##luc
reclamer
lequi
royaute
fonderie
rupert
soupe
bourgeoise
mentionnes
voiles
hostiles
##xa
dissout
toits
solidaire
contingent
specialites
giulio
nomades
carla
atom
elisa
gs
##39
chopin
rempart
fortification
schwartz
bartolome
ultimate
partit
boug
##airs
##aner
myc
encercle
approcher
bloquer
laun
##aele
exceptionnellement
substitution
deschamps
##uleux
##oks
placant
mohammad
fournie
kron
sham
chevro
cuisinier
##trop
megan
fusionner
##lm
incertitude
boursier
goethe
luftwaffe
ee
occupa
nora
cimetieres
rapatrie
faust
paradoxe
resonance
word
bangkok
friend
mecanicien
abdallah
##onales
penurie
##imer
haven
instin
casey
goy
guardian
sams
auxiliaires
##vera
cephal
1635
##onis
##achie
dynamiques
remplit
mediterraneenne
tortues
sursis
##osee
fill
joyeux
caracas
##tery
abris
suez
graphie
influencer
dorothee
offerte
nordiques
strip
hydrologique
##roqu
communion
1530
legales
exclusive
##actylus
##izer
dementi
raven
remuneration
impossibilite
bulletins
proceedings
compas
enterree
etendent
faudrait
exce
englobe
1580
infec
pourvu
##chor
anorm
koi
##iaque
seduit
##obo
1732
tremblay
jg
cara
mousquet
##appe
berk
toni
lobby
##47
droites
lid
schre
dirigea
hammer
prospe
1675
intercontinent
croc
swift
geometriques
##tail
defa
federer
assistants
shirley
demolie
genevois
portraitiste
##astiques
abbeville
adjoints
hurric
##zano
nº
##inominal
gao
desse
sepultures
225
toilettes
natalie
ramire
mendes
##hei
salvatore
paliss
motivation
monographie
berth
wallis
embuscade
scala
novo
fs
##mension
molly
estimer
##wes
johnston
sumat
mesnil
bayer
sonates
maris
utilisaient
milliardaire
ariel
apprenant
##onges
miracles
chaudiere
##arques
diacri
briser
join
##denburg
search
voilier
kadha
##ension
sansk
tarde
parab
##aten
doha
architecturale
##minton
proph
1672
adjudant
germaniques
signatures
##urren
lester
naissent
##inde
##ahi
delcourt
depeche
bk
mazz
hirsch
beyond
tbilissi
##lic
m2
peintes
##world
haras
rediger
palette
apparent
poison
1667
##amines
bastille
##ducation
preserve
nigeri
##ardee
##enton
crosse
fiable
c2
axi
##tsk
##hna
1665
they
1723
promise
habitee
cornelius
##dictions
7e
particule
balneaire
zola
baba
marilyn
rodrigo
monster
mister
dominent
##iquet
gagnante
agreable
hayes
muc
tourelles
##ween
woody
accompagnant
croyant
bom
xxii
verrou
thai
facult
attributs
parcouru
##ied
##agram
##rium
hospice
coproduction
nh
interc
cliff
catastroph
area
autoport
baill
dieter
incidence
mcgill
distincte
discret
herr
fonctionnant
doue
destructions
gosse
endemiques
qualifiant
riley
indirectement
survit
liechten
invoque
independent
badminton
1666
plaintes
computer
schaer
florida
##onga
fiance
vagab
lique
aborig
cession
why
daf
consideration
lund
pires
lemp
essex
executions
fictive
improv
glau
saintonge
community
ouvrieres
prolifique
kremlin
visiblement
importation
darm
alvarez
mule
assumer
dura
neptune
nils
##wij
##dide
##acar
fonc
charentes
bocage
glisse
piper
cordoue
keny
mistral
aristide
eje
##42
##onies
##unga
doyenne
[...]
